0002
FFFD
FFFE
0002
0002
0003
0000
0001
FFFB
FFFE
0001
0006
0001
0002
FFF7
FFFF
FFF9
0002
0002
0004
FFF9
FFFB
FFFF
FFFA
FFFC
FFFA
FFF8
0000
0000
FFFF
0002
FFF9
FFFF
0006
FFFF
FFFB
000B
0002
0001
0002
FFF9
FFFC
FFFD
FFFB
0002
FFFE
0006
0005
FFFD
FFFF
FFFF
FFFC
FFFF
0002
FFFB
FFFF
FFFD
0003
0001
FFFF
0003
FFFF
0000
0003
FFFF
0003
0009
0008
FFFD
FFFC
0001
FFFF
0001
0002
0000
FFFB
FFFE
0001
0006
0002
FFFA
FFFC
FFFF
0002
FFFE
FFFC
FFFF
0006
0001
FFFB
0000
FFFE
0005
0003
FFF9
FFFC
000A
0001
0003
0003
FFFD
FFFD
0003
0004
0002
FFFD
FFFB
0004
0003
FFFF
FFFB
0002
0000
0003
FFFC
0001
FFFF
0006
FFFF
FFFB
FFFE
FFFD
FFFA
FFFD
FFFD
FFFC
FFFD
FFFF
