FFFFFFFD00040000FFFDFFFB000000000004000400050001FFFE0000FFFD0001000000020002000100020003FFFA0005FFFF0000FFFFFFFD00010000FFFB0004FFFF00010002FFFA00000000FFFAFFFFFFFE0001FFFB000400030003FFFD00050002FFFEFFFBFFFE0003FFFEFFFE0000FFFB0001FFFFFFFEFFF9FFFDFFFEFFFB
FFFA0005FFFBFFFE0001FFFC00000001FFFD000200000002FFFE0005FFFF0002FFFBFFFAFFFC0002FFFE0006000200050004000300020004000300020002FFFCFFFB0003FFFE00020005FFFCFFFDFFFD0000FFFAFFFBFFFE000500010001FFFC00020002FFF900000003FFFE00010000000300000002FFFF0002000200030003
FFFCFFFF00010004FFFE000100020002FFFF000000010000FFFF000000030003FFF900030004FFFF00020005FFFD000500020003000000000000FFFCFFFE000300010002FFFF0000FFFE0003FFFEFFFEFFFCFFFDFFFF00010003000100010001000300020002FFFCFFFFFFFB00020002000000000000000000010004FFFFFFFC
00030005FFFEFFFF0002FFFFFFFAFFFCFFFF0001FFFF00030001FFFCFFFFFFFCFFF9FFFCFFFEFFFC000300020000FFFCFFFD0000FFFDFFFE00000002FFFE00040003FFFDFFFCFFFC0001FFFDFFFE0005FFFEFFFB0001000100000000FFFEFFFE0003FFFD00000000FFFFFFFAFFFCFFFAFFFE00010003FFFF00030002FFFD0000
0001FFFDFFFCFFFEFFFC0004FFFB00040004FFFA0003FFFAFFFFFFFBFFFEFFFCFFFAFFFD00010002FFFBFFFBFFFB0002FFFA0004000000040002FFFFFFFEFFFA00000002FFFB0002FFFE0000FFFAFFFC0002FFFCFFF9FFFB0003FFFEFFFDFFFCFFFE0000000300000002FFFAFFFEFFFD0001FFFFFFFEFFFE00010003FFFFFFFA
0000FFF9FFFD00010002FFFC0004FFFF00060004FFFC000100040004FFFD00030002FFFEFFFCFFFE000200060000FFFE0005000400010001FFFDFFFFFFFDFFFE0004FFFEFFFF0003FFFC00030000000500030003FFFCFFFEFFFA00010004000200050005FFFA0003FFFF00010002000100000003FFFB0000FFFE00000004FFFC
0006FFFA0004FFFFFFFB00000001FFFDFFFC000000010000FFFE0002FFFF00060003FFFFFFFF0001FFFCFFFD0005FFFD000200000004FFFFFFFDFFFDFFFD000200030006000000000001FFFE00000000FFFBFFFE0003FFFBFFFFFFFFFFFEFFFFFFFC0001FFFFFFFF0001FFFC0003FFFB00010004FFFC00050000FFFFFFFDFFFE
FFFCFFFBFFFD0002FFFCFFFEFFFF0001FFFE0006FFFE00040000000100030002FFFEFFFC00030000FFFC0001FFFD0004FFFD00000001FFFF00010000FFFBFFFC00030000FFFEFFFE0004FFFC0003FFFD0002FFFDFFFEFFFEFFFC00000001FFFE00000002FFFFFFFB0003FFFEFFFC000100000005FFFCFFFDFFFEFFFC0003FFFC
FFFCFFFCFFFF0000FFFFFFFBFFFD000500030003000400020002FFF9FFFC0002000100020004FFFEFFFE0002FFFEFFFBFFFD0001FFFDFFFEFFFFFFFFFFFC0004FFFE00030000FFFD00000002FFFBFFFF00020000FFFAFFFDFFFEFFFFFFFE00030000FFFD00030001FFFD00030000FFFBFFFDFFFEFFFB000200050004FFFD0003
00030001FFFFFFFD000400010001000300010002000300010000FFFE000300000000FFFF0001FFFDFFFD0005FFFE00000003FFFCFFFF0003FFFFFFFBFFFEFFFB0001FFFCFFFDFFFCFFFC00010000FFFA000000020000FFFAFFFCFFFFFFFC0004FFFD00020004FFFA0000FFFAFFFEFFFD0005FFFE000000020000FFFCFFFEFFFB
0005FFFFFFFFFFFEFFFD000100060003FFFBFFFEFFFAFFFCFFFD0001000400040000FFFDFFFEFFFFFFFB000300050003FFFD00020003FFFC00030001FFFC0002FFFEFFFEFFFE0001FFFC0001000100010001FFFF00010004FFFB0003FFFD00010001FFFA00040002FFFBFFFC00010003FFFB0000FFFCFFFFFFFCFFFE0000FFFF
0002FFFEFFFCFFFA0002FFFB0000FFFD0003FFFE0002FFFDFFFDFFFE000200000005FFFBFFFFFFFEFFFBFFFD0001FFFA00030003FFFB000200040002FFFDFFFBFFF90003FFFD000000030002FFFEFFFB0004FFFDFFFB0002FFFB00060003FFFE00020001FFFD000100020003FFFDFFFD0004FFFFFFFB00030000000100010001
0003000000000002FFFFFFFAFFFB000200020003FFFDFFF9FFFEFFF900010001FFFE0000FFFC0002FFFF00010002000500040003FFFC0003FFFAFFFCFFFDFFFD00040003000300010000FFF900020001FFFFFFFEFFFC00050002FFFE00030004FFFE0000FFFDFFFEFFFBFFFDFFFC0001FFFC000100030007FFF9FFFE00030001
FFFFFFFE00030001FFFCFFF9000200010002FFFE0000FFFE0000FFFE0000FFFD0001FFFB0001FFFA0000FFFD0000FFFAFFFEFFFEFFFB0003FFFD0001FFFB0004FFFDFFFFFFFF00020002000500010005FFFDFFFDFFFAFFF9FFFF0003FFFE00060004FFFCFFFDFFFFFFFE00010003FFFBFFFD00020001FFFBFFFD000300030001
000100020000FFFEFFFCFFFAFFFD000100000003FFFAFFFE00020000FFFEFFFEFFFEFFFEFFFE0002FFFEFFFFFFFB00000000FFFDFFFD0000FFFE0002FFFCFFFB0002FFFAFFFAFFFCFFFB0001FFFCFFF9FFFD000300030000FFFEFFFEFFFF00030004FFFF0004FFFFFFFEFFFDFFFBFFFDFFFF0002FFFCFFFFFFFA000200040003
00000000000200040000FFFAFFFD0000FFFD0001FFFDFFFF0002FFFCFFFE00020001000300010002FFFB0001FFFBFFFB0002FFFDFFFFFFFC0001FFFF0000FFFC00020000FFFB00050006000000000000FFFF000200060000000100010000FFFAFFF9FFFFFFFBFFFF0000FFFD0003FFFFFFFE0000FFFAFFFCFFFD0002FFFCFFFF
00010000FFFB0000FFFE000200010001FFFD00000000FFFAFFFAFFFBFFFE0001FFFC00050002FFFFFFFC00030001FFFF0004FFFF0003FFFC0000FFFFFFFC000000000003FFFF0000FFFDFFFD00000005FFFDFFFFFFFBFFFBFFFE000400050000FFFB0003000000010001FFFC00010003FFFD0000FFFCFFFEFFFC0002FFFFFFFC
FFFCFFFB0003FFFC0001FFFC0000FFFE0002FFFEFFFD0002FFFCFFFD0003FFFF0000FFFD00030000FFFDFFFC000200050003FFFB00050001FFFCFFFF0005FFFCFFFE00020002FFFE0003FFFDFFFD00030002FFFD000600050000000500020006FFFEFFFCFFFC00000000000300030003FFFF00030003FFFD0001FFFCFFFB0003
FFFCFFFD00040004FFFE0000FFFB0003FFFEFFFBFFFAFFFE0003FFFC00020000FFFFFFFFFFFC00050002FFFCFFFDFFFD00040000FFFDFFFDFFFEFFFF00010002000100030000FFFE00050002FFFC00020003FFFD0001FFFDFFFC0005FFFA0000FFFDFFFD00000003FFFFFFFEFFFCFFFBFFFD0000FFFCFFFE0001FFFC0001FFFE
FFFEFFFB0000FFFD0004FFFE00030003FFFEFFFB0004FFFB0001FFFEFFFBFFFC0001FFFDFFFDFFFFFFFAFFFFFFFAFFFC0001FFFB0002FFF90006FFFE0001FFFEFFFAFFFE0003FFFBFFFFFFFFFFFE00030005FFFA00020001FFFA0003FFFF00030003FFFFFFFC0002FFFDFFFBFFFCFFFEFFFAFFFDFFFF0000FFFE0003FFFCFFFB
00000004FFFE0002FFFBFFFF00020001FFFC0001FFFEFFFDFFFDFFF9FFFFFFFA00000002FFFFFFFAFFFC0003FFFF0000000000000001000100030005FFFFFFFDFFFF0003000000050005FFFD0005FFF9000000020004FFFAFFFF00030000FFFDFFFCFFFFFFFE000300030004FFFCFFFD0000FFFAFFFF0001FFFBFFFFFFFB0006
FFFEFFFDFFFDFFFF0004000000020001FFFAFFFBFFFC0002FFFCFFFDFFF90001FFFFFFFD0003FFFE00030003FFFF00020001FFFF0002FFFDFFFE0002FFFD0000FFFFFFFBFFFE00010002FFFAFFFFFFFE0002000100000004FFFE0005FFFEFFFEFFFAFFFCFFFDFFFEFFFEFFFFFFFEFFFFFFFFFFFFFFFBFFF900010004FFFD0003
FFFDFFFB00020003FFFDFFFFFFFFFFFD0000FFFDFFFBFFFF0003FFFAFFFE0002FFFFFFFC0000FFFF000200030001000200000005FFFC0003FFFBFFFCFFFD00000005FFFFFFFFFFFC0004FFFAFFFCFFFE0005FFFAFFFD000300000002FFFD000300010002FFFFFFFD00010001000200000005FFFF00050001000100030000FFFE
FFFD00030000FFFC0001FFFCFFFC0005FFFE0002FFFDFFFB0003FFFFFFFF0002000100000001FFFC00030005FFFEFFFF00030000FFFEFFFBFFFAFFFD0004FFFE0003FFFDFFFCFFFDFFFE0001FFFA0001FFFE0001FFFEFFFDFFFB0004FFF9FFFDFFFCFFFFFFFDFFFF0001FFFAFFF900000001FFF900030001FFFDFFFE0000FFFE
0001FFFA0004FFFAFFFF00010003FFFC0000FFFD0000FFFD00030003FFFD0003FFFFFFFD0000FFF9FFFCFFFD00020000FFFBFFFEFFFCFFFE000000030000FFFCFFFFFFFAFFFF000200030004FFFEFFFE0005FFFC00010001FFFD00020001000100000000FFFA0001FFFE0003FFFB0003000400010002FFFFFFFCFFFCFFFAFFFC
FFFC000100010000FFFDFFFFFFFAFFFB0002FFFBFFF9FFFEFFFD0001FFFDFFFFFFFDFFFD0003FFFD0001FFFBFFFDFFFFFFFE00000003FFFEFFFF00010005FFFE0002FFFF000300040000FFFB000000000005FFFD0000FFFAFFFD0001FFFC0002FFFAFFFCFFFE000200000001FFFE00040001FFFDFFFDFFFBFFFAFFFCFFFD0001
FFFE000200020001FFFE00020001FFFFFFFBFFFCFFFEFFFC00020000FFFBFFFF00030001FFFEFFFFFFFB00000002FFFC000000000001FFFEFFFBFFFFFFFEFFFC0004FFFFFFFF0002FFFC0003FFFA0005FFFE000000020001FFFE00000006FFFDFFFCFFFAFFFE000100000000FFFDFFFBFFFCFFFEFFFFFFFB00010000FFFE0004
FFFBFFFCFFFEFFFDFFFEFFFC000300030002FFFDFFFD00010001FFFC00030001FFFDFFFEFFFC0001FFFBFFF9FFFEFFFC0003000100020003FFFBFFFEFFFEFFFF00040000FFFC00020000FFFC00000000FFFE000100040000FFFE0000FFFD0000FFFB0003FFFEFFFF000000040002FFFBFFFEFFFC000200020000FFFFFFFCFFFF
FFFDFFFFFFFE00050001FFFFFFFEFFFC0003FFFCFFFC0000FFFEFFFEFFFFFFFA0000FFFFFFFCFFFBFFFE0002FFFC0001FFFEFFFE0002FFFEFFFFFFF9FFFC0006FFFD0002000100010001FFFFFFFBFFFE000000020003FFFD000200010000000000010005FFFFFFFF00010004FFFB00020004FFFDFFFDFFFEFFFD000200000005
FFFAFFFEFFFE0002FFFEFFFAFFFF0004FFFBFFFC00030003FFFD000100020001FFFEFFFBFFFBFFFFFFFA00020001FFFC0000FFFE0000000300010000FFFB00030000FFFBFFFBFFFEFFFAFFFF0000FFFCFFFEFFFE00030002FFFD0004FFFFFFFEFFFAFFFB0002FFF9FFFFFFFE0002FFF9FFFDFFFC0002FFFEFFFEFFFDFFFFFFFC
000300000001FFFDFFFD0000FFFFFFFEFFFA000100030004FFFBFFF9FFFD0003FFFE0004FFFDFFFEFFFCFFF9FFFBFFFCFFFFFFFC0002FFFE0002FFFE0006FFF90002FFFDFFFEFFFE0004FFFA00020001FFFDFFFFFFFEFFFD0000FFFF0001FFFA000000010000FFFE00040003FFFA00040000FFFC0000FFFEFFFAFFFA00030003
00030000FFFDFFFBFFFC00020001FFFDFFFD00010002FFFD00020002FFFAFFFBFFFBFFFF0003000100010003FFFEFFFD00000002FFFBFFFCFFFBFFFBFFFEFFFAFFFBFFFE0006FFFDFFFDFFFDFFFDFFFBFFFF0001FFFD0001FFFA0004FFFEFFFC0000FFFEFFFD000300020004FFFF0006FFFEFFFCFFF9FFFDFFFA0003FFFC0004
00000001FFFF0000FFFFFFFBFFFDFFFDFFFCFFFE0003FFFA0002FFFBFFFAFFFD00030002FFFB00040000FFFAFFFF0005000200020004FFFF000100000000FFFB000100010005FFFB0006FFFAFFFDFFFC00020001000300010003FFFDFFFEFFFD000300030002FFFDFFFFFFFDFFFBFFFFFFFCFFFFFFFF00020000FFFC00020001
0000FFF9FFFAFFFFFFFFFFFEFFFFFFFCFFF90001FFFC000000050002000300000000FFFF00030001FFFEFFFF0001FFFD0000FFFC0003FFFD0002FFFF0000FFFB0004FFFE0000FFFDFFFF0002FFFB0003FFFFFFFAFFFC0002FFFA0001FFFDFFFEFFFCFFF900000004FFFAFFFF0000FFFCFFFFFFFD0001FFFCFFFE0000FFFD0001
0003FFFBFFFF0001FFFFFFFA00040002FFFDFFF9FFFAFFFAFFFEFFFBFFFCFFFDFFFF0002FFFEFFFAFFFD0002FFFF0003FFFF00030000FFFF0003FFFB0004FFFD000200030003FFFA0001FFFB00020003FFFDFFFA0004FFFE0000000200000005FFFF0000FFFDFFFEFFFCFFFFFFFEFFFFFFFFFFFBFFFC00030001FFFD0000FFFC
0002FFFCFFFF000000030001FFFF0003FFFCFFFC000300010003FFFBFFFA0000FFFAFFFFFFFEFFFCFFFBFFFA00000004FFFBFFFA0000FFFF00010003FFFE0002FFFEFFFEFFFCFFFA00020003FFFDFFFD00020001000600020002FFFDFFFEFFFFFFF9000100010003FFFFFFFEFFFB0003000200020002FFFCFFFEFFFAFFFFFFFC
0001000200000001FFFF00010003000100030003FFFCFFFB0000FFFEFFFF00000000FFFFFFFFFFFEFFFDFFFF00000000FFFBFFFC0002FFFD00010000FFFE00000000FFFF000500020003000000030004FFFDFFFD0000FFFF00020002FFFF0001FFFCFFFFFFFD0005FFFFFFFF00020004FFFF0003FFFAFFFC0002FFFBFFFA0005
FFFD0000000100020005FFFCFFFFFFFAFFFBFFFEFFFDFFFFFFFA0002FFFDFFFFFFFFFFFAFFFF0001000300010000FFFE0004000200040001FFFEFFFB000500000001FFFEFFFB0003FFFD0000FFFD000400000000FFFFFFFEFFFDFFFEFFFE0002FFFFFFFEFFF9FFFD0000FFFFFFF900020002FFFBFFFDFFFDFFFAFFFEFFFE0001
FFFFFFFFFFFE0001FFFF00030002000000030003FFFA00000000FFFCFFFCFFFE0000FFFB000300020001FFFFFFFEFFFB000300020000FFFB0003FFFDFFFE00020000FFFFFFFCFFFC00030003FFFF0002FFFEFFFD0001FFFEFFFB0005000100010002FFFDFFFB0005FFFE00010002FFFDFFFEFFFD0001FFFF0002FFFDFFFCFFFE
FFFA0003FFFCFFF90000FFFA0005FFFAFFFDFFFD00000001FFFD00010000FFFF000100000001FFFCFFFAFFFBFFFB00000003FFFE000000030000FFFEFFFFFFFC0001FFFF000200030002FFFAFFFCFFFFFFFAFFF9000100030001FFFFFFFFFFFDFFFD0001FFFCFFFEFFFBFFFCFFFCFFFCFFFA0002FFFFFFFE00020002FFFA0000
00020000FFFAFFFBFFFBFFFAFFFEFFFCFFFEFFFBFFFFFFFBFFFC0002FFFBFFFDFFFC0003000200000004FFFC0003FFFBFFFBFFFEFFFDFFFAFFFFFFFEFFFEFFFA0003FFFCFFFB0001FFFB0004FFFBFFFB00000003FFFCFFFE00010000FFFE0000FFFA0003FFFE0001FFFCFFFAFFFD0003FFFBFFFC0000FFFB00020002FFFE0001
FFFCFFFC000200030004FFFF0003FFFDFFFDFFFBFFFE000400000003FFFF00010000FFFBFFFAFFF90005000000020002FFFAFFFEFFFAFFFD0001FFFE0001000300000001FFFD0003FFFC0002FFFEFFFFFFFDFFFEFFFBFFFF00010001FFFB00000002FFFF0000FFFBFFFEFFFAFFFD0000FFFD00010000FFFCFFFB000000000000
FFFD0001FFFE00010005FFFA0001000400030001FFFEFFFFFFFF000200050001FFFBFFFEFFFFFFFCFFFB000200030002FFFFFFFFFFFFFFFFFFFEFFFBFFFCFFFFFFFD0003FFFFFFFEFFFF0004000100020000FFFCFFFAFFFCFFFF0001FFFBFFFE0000FFFC000300030003FFFA0001FFFBFFFBFFFCFFFF0002FFFD0003FFFD0002
0002FFFBFFFEFFFEFFFFFFFA0003FFFC00000001000100030005FFFFFFFEFFFCFFFDFFFC00020003FFFB0004000000000003FFFD00030002FFFC00000001FFFDFFFDFFFAFFFC000200020002000200030005FFFE0002FFFCFFFEFFFEFFFFFFFDFFFBFFFCFFFC0002000000030001FFFE00020003FFFEFFFAFFFEFFFA0004FFFD
FFFB0002FFFA0003FFFEFFFE0002FFFFFFFF0002FFFD00010003FFFB0003FFFA0002FFFCFFFBFFFEFFFDFFFBFFFDFFFCFFFE0000FFFA00000002FFFB00010000FFFFFFFB000300030003FFFFFFFB0000FFFCFFFBFFFE000100010000000100030003FFFDFFFBFFFA000000010002FFFEFFFBFFFFFFFAFFFFFFFFFFFAFFFF0003
FFFA0002FFFBFFFE00000000FFFFFFFBFFFB00010004FFFE00010000FFFCFFFFFFFDFFFEFFFCFFFC0000FFFCFFFE00010000FFFF00010001FFFCFFFBFFFEFFFFFFFFFFFDFFFAFFFD00040002FFFF000100040002FFFDFFFAFFFBFFFDFFFF00010000FFFF00000001FFFC0001FFFE00000001000000030000FFFFFFFBFFFEFFFD
FFF9FFFA00010001FFFCFFFAFFFE000000020000FFFEFFFF0005FFFCFFFFFFFEFFFFFFFDFFFBFFFFFFFD00010000FFFB00010002FFFC0001000000000004FFFC0000FFFBFFFDFFFC0000FFFF0000FFFC0003FFFC00000002FFFFFFFFFFFCFFFE0005000200010003FFFA0003FFFE00020003FFFC0002FFFBFFFFFFFB00020002
0001FFFCFFFC0003FFFE00020003FFFCFFFAFFFF00000001000300000002FFFBFFFCFFFEFFFDFFFCFFFBFFFE000100020002FFFCFFFEFFFBFFFE0000FFFB0000FFFC0003FFFB0002FFFDFFFC00020003FFFD0003FFFA0001FFFCFFFC0004FFF900010005FFFD00000001FFFEFFFC0003FFFDFFFF00010002000000050002FFFD
0000FFFB0000FFFFFFFD00010003FFFF0000FFFB0001FFFFFFFFFFFE0001FFFB000000010003FFFC0001FFFDFFFEFFFB000100020001FFFE0001FFFA0003000300000000FFFC00010001FFFB0001000500010000FFFFFFFD00010005FFFEFFFA0000FFFD00030003FFFF0003FFFF00010005FFFFFFFC00010000000500030001
00030000FFFCFFFD0001FFFFFFFB00000000FFFEFFFA0002FFFBFFFBFFFFFFFEFFFB0002FFFDFFFAFFFF0000FFFCFFFE0002000400030002FFFEFFFAFFFD0002FFFD0003FFFF0003FFFE0003FFFCFFFE0001FFFDFFFD0003FFFCFFFBFFFD00010003FFFFFFFDFFFA0002FFFA0000000100020000FFFF0003FFFF00010003FFFC
FFFFFFFCFFFA0000FFFCFFFF000300030000FFFCFFFEFFFCFFFCFFFEFFFA00020001FFFE00030001FFFF0002FFFFFFFE0004FFFD0001FFFFFFFFFFFC00020001FFFBFFFE0001FFFBFFFCFFFDFFFBFFFB00000003FFFF0003FFFCFFF900010002FFFC0003FFFEFFFFFFFA0002FFFE000100000000FFFCFFFDFFFD000200020003
FFFC0004FFFF00010003FFFAFFFE000200000001FFFEFFFC00000005FFFDFFFD00020000FFFB0000FFFBFFFFFFFBFFF9FFFDFFFCFFFFFFFDFFFCFFFDFFFC0004FFFFFFFFFFFAFFFA0000FFFAFFFCFFFB0001FFFF000400030003FFFE0003FFFBFFFEFFFD00000000000100000001FFFCFFFEFFFCFFFEFFFDFFFC000200020002
0000FFFBFFFE0000FFFD00000003000100010003FFFEFFFA0004FFFEFFFFFFFEFFFFFFFC0002FFFA00020000FFFB00040000000200000004FFFB0002FFFDFFFFFFFE0001FFFFFFFBFFFF0002FFFD0002FFFCFFFCFFFEFFFD0001FFFD000400010001FFFEFFFAFFFE0002FFFA00020003FFFEFFFD0002FFFCFFFBFFFB00000000
FFFF000000020000FFFBFFFB0003FFFEFFFB0000000400010003FFFFFFFDFFFEFFFDFFFAFFFCFFFC00030000FFFE00020000FFFD000000040001FFFE0001FFFCFFFD0000FFFCFFFAFFFA0002FFFEFFFF0002FFFB0000FFFD000100010001FFFE0002FFFFFFFD00010002FFFBFFFBFFFBFFFF0001FFFC0003FFFD0004FFFAFFFF
FFFF0003FFFB0004000200030000FFFFFFFEFFFBFFFFFFFAFFFB0003FFFEFFFFFFFCFFFE00000002FFFF0005FFFE0000FFFEFFFD0003FFFE0002FFFE0002FFFE00020001FFFFFFFA00020003FFFEFFFBFFFCFFF9FFFA00000003FFFC0003FFFF000100040000FFFDFFFBFFFA0001FFFFFFFA0003FFFB0002FFFE00000001FFFD
0000FFFEFFFB0000FFFEFFFFFFFBFFFAFFFEFFFBFFFC00030003FFFB00010000FFFFFFF900020004FFFCFFFFFFFD000000040003FFFB0002000300010002FFFDFFFC00010002000200030001FFFEFFFF000300000002FFFFFFFA00020000000300000002FFFE00030000FFFAFFFCFFFC0003FFFFFFFAFFFBFFFCFFFAFFFE0000
FFFDFFFAFFFBFFFEFFFDFFFDFFFAFFFCFFFBFFFCFFFFFFFFFFFCFFFE0001FFFCFFFB00020003FFFFFFFAFFFF000000030002FFFDFFFEFFFDFFFA00050005FFFE000100030002FFFBFFFAFFFD00010001FFFCFFFEFFFD0003FFFC0005FFFD0000FFFCFFFCFFFDFFFEFFFCFFFD0000FFFD000200030003FFFC0000FFFBFFFF0004
0002FFFC0005FFFB0001FFFCFFFAFFFC00010001FFFBFFFC0004FFFBFFFC00020001FFFEFFFC00010002FFFE0000FFFF0004FFFDFFFE0001000100040003000300000000FFFD0000FFFE0001FFFF00030005FFFBFFFF00020003000100020000FFFE0003FFFB0002FFFFFFF90000FFFCFFFEFFF900050000FFFDFFFF00020001
00010000FFFB000100040000FFFFFFFDFFFCFFFC0004FFFF000100040004FFFF000200030005FFFEFFFCFFFFFFFB000200020000FFFFFFFCFFFC00000003FFFF00040001FFFDFFFEFFFF0001FFFAFFFBFFFCFFFF0003FFFBFFFEFFFFFFFC00030001FFFFFFFE0001FFFBFFFCFFFC0003FFFDFFFF0003FFFBFFFB00020001FFFB
000000030004FFFC0005FFFAFFFF0003FFFAFFFEFFFD0001FFFB0002000500010001FFFA0002FFFF00010003FFFDFFFC0002FFFC000100040003FFFEFFFF0001FFFB0000FFFC0001FFFBFFFEFFFCFFFE0002FFFD0003FFFAFFFCFFFCFFFCFFFE0002FFFC0001FFFBFFFE0000000100030002000300030001FFFEFFFB0002FFFD
FFFFFFFB0000FFFFFFFD00020000FFFCFFFE00010003FFFCFFFF0000FFFC0000FFFC0001FFFAFFFCFFFBFFFEFFFBFFFC0002FFFF0005FFFAFFFE0000FFFBFFFB0003FFFE0001FFFD000100030000FFFBFFFEFFFC00020001FFFCFFFD0003FFFF00030002FFFFFFFDFFFCFFFAFFFCFFFCFFFFFFFEFFFA00010000000200010002
FFFC00000002FFFFFFFE0002FFFDFFFDFFFA00030000FFFB00010001FFFDFFFF0003FFFBFFFC0001FFFDFFFAFFFEFFFE000000020004FFFCFFFDFFFE00050002000100030002FFFE00010002FFFB0003FFFCFFFCFFFD0000FFFA0004FFFDFFFB0004FFFDFFFAFFFD0002FFFD0003FFFBFFFE00020003FFFFFFFB00000001FFFF
FFFD0001FFFE0003FFFFFFFDFFFE0004FFFBFFFBFFFAFFFD000000030004FFFFFFFAFFFC0000FFFA0000FFFFFFFC000400000005FFFB000000020001FFFD0005FFFEFFFF00020003000200010003FFFB0002FFFEFFFDFFFFFFFC00000004FFFD00010005FFFDFFFCFFFC0000FFFEFFFE0004FFFBFFFFFFFA0002FFFC00000000
FFFCFFFAFFFF0001FFFFFFFD00020002FFFE00010003FFFB00050004FFFCFFFFFFFFFFFCFFFFFFFCFFFC0004FFFEFFFC0002000400050004FFFBFFFE0003FFFE0004FFFEFFFAFFFA0002FFFF0001FFFC00000000FFFB0003FFFCFFFDFFFBFFFC00050002FFFCFFFFFFFB0002FFF9FFFE00040001FFFCFFFAFFFF000400030002
FFFCFFFE000000050003FFFAFFFF00030003FFFEFFFEFFFE0003000300050003FFFFFFFE0004FFFFFFFD0000FFFBFFFB0001FFFE00010001FFFBFFFC00020001FFFAFFFB0001FFFC00030002FFFC0002FFFDFFFEFFFAFFFCFFFCFFFFFFFA0000FFFBFFFF0001FFFDFFFC00010003FFFB0003FFFBFFFEFFFCFFFA0004FFFAFFFB
00030001FFFFFFFFFFFEFFFBFFFE0003FFFAFFFE0003FFFB0004FFFEFFFA00010001FFFEFFFAFFFFFFFD000300010004FFFE0002FFFF0003FFFCFFFFFFFE0002FFFFFFFB00010001FFFB0003FFFBFFFB0002FFFFFFFF000300010003FFFD0001FFFEFFFEFFFCFFFAFFFBFFFE000000010001FFFD0001FFFCFFFAFFFAFFFA0002
0003FFFD0005FFFEFFFE0003FFFBFFFDFFFD00000002FFFFFFFCFFFEFFFE00020000FFFAFFFE00020004FFFDFFFE0003FFFF000500010003FFFA00010005000300000002FFFC0000000300030001FFFEFFFEFFFF00020001FFFDFFFB0002FFFF0004000000010004FFFB0002FFFF00010001FFFA0002FFFCFFFDFFFE0002FFFD
0002FFFBFFFFFFFC0004FFFDFFFD00010002FFFCFFFEFFFA00040003FFFC0002000300010001FFFEFFFCFFFC0002FFFCFFFC00010001000200020001000000000001FFFCFFFCFFFDFFFB00030002FFFC00050001FFFFFFFDFFFEFFFB0003000300040005FFFAFFFBFFFFFFFDFFFDFFFD000400030003FFFAFFFEFFFC00000002
FFFCFFFE000300000005FFFAFFFDFFFCFFFCFFFFFFFBFFFC0000FFFF0005FFFFFFFCFFFC0003FFFDFFFDFFFBFFFDFFFCFFFCFFFC00030005FFFB00020000FFFC00040000FFFCFFFCFFFE0004FFFF00040003FFFDFFFFFFFDFFFE00030000FFFD00010004FFFEFFFB0000FFFDFFFDFFFB0005FFFC0005FFFD00020001FFFC0000
FFFC00000000FFFF0000FFFAFFFD0000FFFC0003FFFFFFFEFFFEFFFEFFFDFFFB00010000FFFB0000FFFD0004FFFAFFFAFFFC0004FFFDFFFCFFFE0003FFFD0002000300000002FFFBFFFFFFFCFFFD00010000FFFE0002FFFF0002FFFD000000030005FFFBFFFC0003FFFE000100020000FFFEFFFE0001FFFD0001FFFEFFFDFFFA
00000001FFFEFFFBFFFCFFFBFFFAFFFE0001FFFD0004FFFF000400030000FFF9FFFBFFFDFFFAFFFF0001FFFE0002FFFF0002FFFB000100020002FFFEFFFA000000030000FFFB0002FFFF0000FFFDFFFA0001FFFC000300000000FFFC000000030000FFFFFFFCFFFB00010001FFFFFFFB0003FFFEFFFBFFFB0001FFFBFFFEFFFE
0002FFFDFFFCFFFC0003FFFA000200040001FFFE00000003FFFC0003FFFBFFFDFFFAFFFF0002FFFAFFFBFFFAFFFC0001FFFC000400050002FFFAFFFDFFFD0004FFFEFFFE0001FFFC0002FFFD00010001FFFDFFFB0000FFFEFFFEFFFEFFFDFFFA0002FFFFFFFF0005000300010000FFFDFFFCFFFC0000FFFF0000FFFF00030002
0000FFFA0005FFFFFFFCFFFBFFFBFFFCFFFFFFFCFFFAFFFC0003FFFFFFFF00000000FFFF0001FFFA000300000004FFFB0002FFFC0002FFFAFFFB0001FFFEFFFC00030002FFFAFFFEFFFD0003FFFFFFFD0004FFFFFFFBFFFC0003000300010001FFFEFFFEFFFFFFFE0003FFFA0001FFFB0003FFFF0004FFFBFFFAFFFEFFFFFFFB
000200020003FFFCFFFD00000003FFFE0002FFFE000000020005000300020001FFFEFFFFFFFE0000FFFC0004FFFEFFFFFFFE0004FFFCFFFC0001FFFB0002FFFEFFFF0000FFFEFFFD00030002FFFC0001FFFFFFFEFFFD0003FFFF0002FFFD000000020002FFFB0003FFFDFFFEFFFCFFFC0002FFFE00040002FFFD0002FFFA0000
FFFDFFFC00030005FFFB0002FFFCFFFCFFFAFFFB00000000FFFCFFFEFFFDFFFCFFFE000200030003FFFE0002000000000003FFFD00020004FFFFFFFDFFFAFFFE0001FFFFFFFB000200010004FFFFFFFD0005FFFDFFFFFFFF0001FFFDFFFFFFFC0000FFFEFFFBFFFDFFFCFFFDFFFF0001FFFAFFFE0000FFFEFFFB0001FFFAFFFC
FFF9FFFAFFFDFFFCFFFAFFFCFFFDFFFF00020000FFFFFFFFFFFB000200010003FFFFFFFDFFFD0004FFFB0002FFFB00050003FFFAFFFEFFFE0000FFFA00030001FFFC00010001FFFD00030003FFFB00000001FFFBFFFB0002FFFD0002FFFD0001FFFCFFFBFFFFFFFD00030003FFFB00010003000000010001FFFAFFFCFFFEFFFF
FFFAFFFAFFFB00020003FFFEFFFF0003FFFA00020003FFFA0001FFFCFFFCFFFD00000003FFFFFFFCFFFAFFFFFFFF0001FFFB00030003FFFF0001FFFF00030000FFFCFFFF0001FFFF0002FFFEFFFD0004FFFBFFFDFFFBFFFD0003FFFD0000FFFAFFFF0002FFFAFFFDFFFDFFFFFFFBFFFD0000FFFE0002FFFE0001FFFB00010004
00020002FFFCFFFBFFFB0003FFFBFFFCFFF90002FFFAFFFE00000003000000030002FFFEFFFB0000FFFCFFFA0002FFFCFFFBFFFEFFFEFFFDFFFFFFFC0001FFFD0000FFFFFFFA0004FFFBFFFC00020004FFFC00040002FFFE0003000300000002FFFCFFFDFFFC0003FFFAFFFA0001FFFBFFFC0003FFFCFFFCFFFE000200020003
0000FFFC00010001FFFCFFFA00010003FFFDFFFC0000000200000002FFFE0000FFFD0003FFFFFFFC00010002FFFDFFFDFFFD0002FFFC000300000000000300010002FFFD00010000FFFDFFFDFFFA000500010000FFFC00030003FFFAFFFE0000FFFB0000FFFC0004FFFDFFFDFFFD0004FFFAFFFFFFFD00000000000100010004
FFFEFFFAFFFDFFFCFFFDFFFC0005FFFCFFFE0000FFFE0003FFFFFFFB0003FFFA0002FFFD00000003000000050002FFFCFFFF0000FFFEFFFE0002FFFDFFFB000200010001FFFC00030001FFFD0000FFFEFFFCFFFD0000000000020002FFFFFFFAFFFBFFFCFFFE00030003FFFC0003FFFDFFFA00000000FFFEFFFBFFFCFFFFFFFC
FFFFFFFBFFFDFFFDFFFEFFFAFFFD00030001FFFE00020000FFFEFFFC00010004FFFB0000FFFCFFFDFFF900030001FFFA0003FFFC00000001FFFCFFFD0001FFFAFFFDFFF9FFFDFFFAFFF9FFFC0002FFFDFFFBFFFF0002FFFFFFFDFFFDFFFBFFFF000000000001FFFD0003FFFE0001FFFD00000004FFFDFFFB00040002FFFEFFFB
FFFBFFFCFFFEFFFAFFFF00030003FFFB000000000000FFFF0002FFFF00000002FFFCFFFCFFFC0003FFFCFFFFFFFFFFFA0001FFFD00000001FFFD000200010002FFFFFFFDFFFC00020002FFFA0003FFFF0003FFF90002FFFD0001FFFC0001FFFCFFFFFFFAFFFCFFFBFFFEFFFDFFFD0004FFFEFFFCFFFE000000040003FFFE0004
FFFE0002FFFC0002FFFE0000FFFA00000000FFFFFFFC0000FFFCFFFEFFFD0000FFFDFFFA00000001FFFD0003FFFD0002FFFEFFFE00000004000200000001FFFA0004FFFDFFFC0003FFFD000300010001FFFFFFFF0003FFFE0000FFFC0000FFFF0001FFFBFFFC0003FFFC0003FFFDFFFC0000FFFBFFFEFFFD0003FFFDFFFE0000
FFFBFFFE0001FFFF00010000FFFB0003FFFDFFFD0000FFFDFFFF0000FFFAFFFBFFFB00030000FFFCFFFFFFFD000300010002FFFD0001FFFCFFFBFFFB00000002FFFE0002FFFBFFFDFFFAFFFBFFFAFFFFFFFEFFFFFFFCFFFF0006FFFD0000FFFFFFFC00000000FFFA0000FFFE0002FFFF0000FFFB000400020001FFFFFFFD0000
0003FFFAFFFBFFFDFFFFFFFB0002FFFCFFFBFFFDFFFD00030003FFFF00030000FFFE00030003000100010000FFFFFFFFFFFE0002FFFFFFFC0003FFFBFFFEFFFEFFFD0001FFFC0002FFFAFFF9FFFEFFFAFFFBFFFBFFFF00030000FFFFFFFFFFFF0003FFFE0002FFFCFFFCFFFD0000FFFDFFFD000000000002FFFA0002FFFC0000
00040003FFFFFFFB0001FFFD000300030002FFFEFFFF0001FFFF0003FFF9FFFB0000FFFC00030002FFFFFFFBFFFBFFFDFFFE0001FFFB0004FFFAFFFAFFFD0004FFFB0001FFFEFFFA000000030002FFFE00000005FFFDFFFCFFFFFFFCFFFFFFFFFFFFFFFDFFFBFFFAFFFEFFFAFFFD0001FFFD00030000FFFBFFFFFFFDFFFE0000
FFFB0001FFFBFFFE00060002FFFD0001000000030002FFFBFFFF00060000FFFB0001FFFEFFF900020001FFFEFFFD00020001FFFFFFFD0002FFFDFFFFFFFC000400020002FFF90004FFFD0002FFFFFFFBFFFD0001FFFDFFFDFFFDFFFA0005FFFAFFFA0001FFFD00050005FFFB0001FFFC0000000300020002FFFD000000010001
000300000003FFFEFFFBFFFE0002FFFC00000001FFFF000300000005FFFCFFFFFFFDFFFDFFFBFFFFFFFB0000FFFBFFFFFFFEFFFB0003FFFEFFFE000000010001FFFFFFFCFFFD00010001000400040002FFFA0003FFFAFFFB0003FFF9FFFC0001FFFD0001FFFCFFFA0004FFFCFFFB00040003FFFEFFFF000100030001FFFC0004
00020002FFFC00010004FFFBFFFDFFFEFFFDFFFF00000001FFFE0001FFFD00000000FFFDFFFEFFFCFFFFFFFD0001000400020000FFFC000300010002FFFA00060000FFFBFFFDFFF9FFFE0000FFFE00040000FFFE0000FFFEFFFE0002FFFDFFFEFFFB0001FFFFFFFD0004FFFC0001FFFC00000002FFFF0000FFFC0000FFFFFFFE
0002FFFC0003FFFFFFFDFFFBFFFEFFFBFFFCFFFAFFFEFFFDFFFDFFFEFFFD00020000FFFDFFFA0001FFFBFFFEFFFEFFFAFFFCFFFFFFFFFFFCFFFD0000FFFE00000004FFFB00010000FFFD0004FFFEFFFB00020001FFFEFFFDFFFFFFFB00030002FFFD000000000003FFFC0002FFFB0002FFFCFFFEFFFDFFFF00040000FFFF0003
FFFB0003FFFBFFFD00030003FFFD0004FFFFFFFF0000FFFEFFFE0001FFFCFFFCFFFA000100000000000400030002FFFC0001FFFD0004000200020000FFFEFFFD0005FFFEFFFC000000010001FFFEFFFA000300020004FFFE0004FFFDFFFF0001FFFEFFFBFFF900020003FFFA0003FFFFFFFAFFFAFFFA000100040003FFFBFFFA
0002FFFDFFFF000200030003FFFB0004FFFC00040001FFFA00000005FFFCFFFBFFFAFFFFFFFBFFFFFFFC0003FFFC0005FFFA0001FFFAFFFF0003FFFEFFF9FFFC0001FFFCFFFEFFFFFFFFFFFD0001FFFD0000000000000000FFFDFFFC00030004FFFC0000000200000002FFFEFFFF0003FFFB0000FFFB000100010001FFFB0000
0002000000030003FFFDFFFEFFFE0002000100040000FFFD000200030004FFFB0000FFFB0003FFFC0001000200020004FFFB000100040002FFFB0003FFFD0006000200030002FFFDFFFAFFFF0003FFFA0002FFFD0000FFFFFFFCFFFF0000000000010005FFFCFFFDFFFE0002FFFBFFFDFFFC00030002FFFCFFFCFFFA0000FFFA
FFFBFFFD00000004FFFCFFFF00000001FFFA0000FFFBFFFDFFFAFFFDFFFFFFFBFFFEFFFDFFFA0002FFFD0003FFFCFFF9FFFEFFFD0001FFFFFFFDFFFBFFFC00000006FFFEFFFB0004FFFD0005FFFEFFFA0004000600000001000300020003FFFEFFFC00050003000400020002FFFBFFFBFFFD00030004FFFE0004FFFBFFFF0001
0002FFFFFFFC0002FFFA0003000100010002FFFF0004FFFCFFFEFFFB0003FFFD00000003000300040000FFFCFFFB0000FFFC000400000000FFFAFFFB00010004FFFE00010002FFFDFFFEFFFBFFFDFFFEFFFA0003FFFFFFFBFFFD0002FFFC0000FFFC00030002FFFB00010003FFFFFFFCFFFEFFFFFFFBFFFDFFFFFFFF0004FFFB
FFFF00000004FFFB00020003FFFE0004FFFBFFFC00030002FFFF0001000100000003FFFBFFFCFFFBFFFBFFFC0000FFFAFFFDFFFBFFFAFFFAFFFE00020000FFFC0001FFF9FFFAFFFE0003FFFCFFFEFFFC00030000FFFE00010004FFF90001000300000002FFFC00010004FFFB0000FFFEFFFC000400010001FFFC0003FFFD0002
00020001FFFC0000FFFFFFFD0002FFFCFFFE00020002FFFEFFFFFFFE0002FFFBFFFB00020004FFFA0004FFFC0002000200040002FFF9FFFDFFFFFFFEFFFC0001FFF90005FFFA0004FFFB00010004FFFF0001FFFC0001FFFCFFFDFFFE00040005000300040003FFFC0002FFFE00040004FFFBFFFF000000020003FFFF00000003
FFFBFFFEFFFA0002FFFAFFFBFFFDFFFFFFFF0000FFFE0000FFFBFFFFFFFD0001FFFDFFFBFFFAFFFE00020001FFFCFFFF000300000001FFFB0003FFFB00000005000300030002FFFE0003FFFE000400010000FFFDFFFCFFFAFFFEFFF90002FFFD0005FFFE0002FFFEFFFE00020002FFFEFFFF00010005FFFBFFFBFFFBFFFF0006
FFFC00000003FFFF0001FFFC0000FFFA00000004FFFBFFFF000200030001000600030001FFFFFFFFFFFBFFFCFFFEFFFE0004000200020002FFFFFFFBFFFA0000000300050002FFFD00010006FFFFFFFF0002000200000003FFFDFFFFFFFDFFFFFFFD0002FFFD00010002FFFFFFFCFFFBFFFF00010001FFFDFFFC000000000001
FFFF0000FFFF00040002FFFD00040001FFFCFFFCFFFB00030003FFFD0001FFFEFFFCFFFBFFFE0001FFFA00050003FFFEFFF90002FFFFFFFD000000020002FFFFFFFDFFFE0000FFFE000300010004FFFDFFFC0000FFFDFFFF00010000FFFB00020006FFFDFFFFFFFBFFFFFFFC00020002FFF9FFFD000000000003FFFF0002FFFD
FFFA0004FFFFFFFEFFFD0003FFFB0002FFFDFFFDFFFCFFFF0004FFFF0000FFFDFFFEFFFD0003000100030002FFFC0000FFFE0004FFFCFFFF0004FFFB000000030000FFFBFFFFFFF9FFFFFFFC0000FFFD00000003FFFAFFFB0003FFFA0001FFFBFFFC0002FFFFFFF900030003FFFD0003FFF9FFFE0005FFFFFFFB00030005FFFB
FFFC0001FFFAFFFA0000FFFE0001FFFF0003FFFEFFFBFFFCFFFE000500010000FFFAFFFDFFFE0001000000020003FFFEFFFC0003FFFEFFFEFFFEFFFDFFFB0004FFFFFFFB00020003FFFF00010000FFFD00010002FFFCFFFBFFFB00000003FFFE0004FFFE0004FFFDFFFE0002FFFB0000FFFCFFFF00030002FFFEFFFC0001FFFF
FFFB0004FFFE00020003FFFF0005FFFD0003FFFBFFFC0003FFFDFFFF0005FFFD000300040000FFFF00010000FFFF00000006FFFC00020004FFFE0007000000020005FFFEFFF90002FFFCFFFF0000FFFB00030000FFFAFFFBFFFFFFF90004FFFE00030000FFFCFFFE0005FFFA00040004FFFDFFFE0005FFFDFFFD0003FFFF0003
FFFCFFFE000400000000FFFE000300050004FFFF00000006FFFCFFFBFFFE0000FFFAFFFCFFFE0002FFFC0000FFFF0000FFFB00030000000300020001FFFC0003000600030000FFFDFFFEFFFD0002FFFF00000001FFFA00000002FFFD0003000700010005FFFFFFFCFFFDFFF9FFFCFFFD000200020006FFFF0000FFFB0003FFFA
000000050002FFFF0002FFFD0003FFFE00050000FFFC0002000300020003FFFEFFFA0002000400030001FFFF00010002FFF9FFFDFFFE0000000000020003FFFAFFFD0004FFFCFFFDFFFEFFFBFFFEFFFBFFFEFFFD0000FFFCFFFEFFFEFFFC000100000002FFFC000200030003FFFEFFFFFFFB0000FFFCFFFD00030002FFFDFFFF
FFFCFFFEFFFF00030000FFFDFFFC000000050004FFFE0000FFFEFFFCFFF900000001FFFF000100010002FFFE00030002FFFDFFFE00020004FFFEFFFE000100030001FFFBFFFCFFFF0003FFFE0001FFFDFFFBFFFEFFFBFFFC0001000300000001000200040000000200000002FFFBFFFBFFFD00020001FFFC00020004FFFEFFF9
FFFC0003FFFE0002FFFC00030001FFFD000400030003FFFF0004FFFD0006FFFBFFFF00010002FFFA0000FFFBFFFDFFFEFFFDFFFDFFFD0003FFFCFFFBFFF900010001FFFBFFFEFFFD0004000200040004FFFDFFFBFFFD0002FFFE0002FFFBFFFF00030003FFFAFFFB00030001FFFD0002FFFAFFFDFFFB0001FFFC0001FFFBFFFE
FFFBFFFEFFFDFFFD00040002FFFD0004FFFDFFFEFFFF0002FFFAFFFFFFFEFFFC0003FFFA0001FFFCFFFD0001000200010001FFFE0000FFFBFFFDFFFDFFFE00050002FFFB00020001FFFFFFFFFFFA000500040004000100040002FFFD00020001FFFEFFFFFFFC0003FFFD0001FFFBFFFAFFFFFFFBFFFFFFFCFFFD0005FFFBFFFF
FFFC0002FFFFFFF9FFFD0000FFFF00040000000300030002FFFE00000000FFFFFFFFFFFC00030004FFFE0000FFFD000000020005FFFEFFFE0002000000020001FFFCFFFDFFFEFFFEFFFE0003FFFD000100020001FFFAFFFBFFFE00020003FFFE0006FFFCFFFEFFFBFFFBFFFB00040003FFFA00020003FFFE0001FFFE0003FFFC
000100020000FFFF0002FFFF000300010003FFFD00030003FFFCFFFF000100020000FFFAFFFE0001FFFCFFFC0003FFFF0001000400010004FFFC0000FFFD00010002FFFBFFFC0001FFFE0003FFFAFFFCFFFD0002FFFAFFFCFFFFFFFCFFFA0005FFFAFFFD0000FFFBFFFBFFFCFFFC00000000FFFFFFFEFFFB00030000FFFCFFFF
000100030001FFFFFFFE0003FFFB00040004FFFD0001FFFDFFFFFFFB000100020002FFFBFFFE000100010000FFFF0003FFFEFFFCFFFD0001FFFD0001FFFD00030003FFFCFFFAFFFD0002FFFBFFFF0002FFFC0003FFFEFFFE0001FFF9FFFEFFFE0002FFFBFFFCFFFD00000001FFFE000200020003FFFCFFFBFFFBFFFA0000FFFD
FFFBFFFBFFFF0005FFFD0004000300000000FFFBFFFEFFFFFFFBFFFA00050003FFFEFFFC000100010003FFFE0002FFFC0000FFFBFFFC0000FFFD0001FFFD0001FFFBFFFFFFFBFFFAFFFF0002FFFEFFFEFFFEFFFAFFFB000000020001FFFC00020000FFFDFFFCFFFA000000020002FFFCFFFFFFFCFFFCFFFFFFFC000000020001
0002FFFD0004FFFDFFFBFFFD00010002FFFAFFFE0001FFFDFFFFFFFA0006FFFFFFFE0001000300030000FFFDFFFEFFFCFFFF0002FFFF0002FFFDFFFD0001000000010001FFF90002FFFD000000030002FFFE0004FFFEFFFB0001FFFC00010004FFFC0000FFFFFFFBFFFCFFFEFFFDFFFB0001FFFCFFFFFFFF000100040003FFF9
0003FFFC0004FFFFFFFB0003FFFB0003FFFF00020004FFFDFFFEFFFFFFFC0002FFFCFFFBFFFBFFFFFFFFFFFEFFFE0002FFFE00030000FFFE0004FFFFFFFD0001FFFEFFFD0003FFFE0000FFFFFFFD0002FFFCFFFCFFFBFFFE0000FFFC00030004FFFEFFFDFFFFFFFC0002FFFEFFFAFFFCFFFC0004FFFCFFFE0004FFFC00040001
0002FFFD000100000002FFFFFFFF0001FFFDFFFEFFFA00030001FFFC00000001FFFB00040003FFFC0000FFFDFFF9FFFF00020004FFFA0004FFFC0001FFFCFFFCFFFBFFFD00030001FFFDFFFBFFFF000000020000FFFD00020000FFFC0001FFFFFFFDFFFF00020003FFFBFFFC0003FFFBFFFAFFFFFFFAFFFEFFFBFFFF0002FFFC
FFFFFFFBFFFE00010001FFFEFFFE0002FFFBFFFFFFFDFFFB00010000FFFEFFFF00000002FFFBFFFF0002FFFBFFFE0003FFFFFFFEFFFA0001FFFF0004FFFAFFFAFFFE00000002000100020002FFFCFFFEFFFEFFFF0001FFFDFFFEFFFC0003FFFFFFFBFFFD0000FFFEFFFFFFFBFFFBFFFB00020000FFFDFFFEFFFC0004FFFB0001
0002FFFC0000000300000001FFFC0003FFFAFFFBFFFE0001FFFBFFFFFFFD0001FFFBFFFF00030000FFFCFFFBFFFE00030002FFFDFFFA0000FFFB0002FFFFFFFDFFFC00030000FFFFFFFB0003FFFB0003FFFCFFFEFFF9FFFC00000000FFFD0000FFFF00000003FFFC0001FFFE0003FFFEFFFDFFFB0000000000000003FFFCFFFB
FFFB0003FFFE0003FFFDFFFFFFFF0000FFFB000400000003FFFE00000004FFFDFFFFFFFDFFFAFFFDFFFAFFFDFFFB0001FFFDFFFB00030001FFFFFFFA0000FFFF0003000000010000FFFDFFFD0003FFFDFFFFFFFEFFFFFFFBFFFC0003FFFEFFFFFFFB0001000000070002FFFFFFFD0001FFFCFFFA00010004FFFDFFFEFFFDFFFA
0002FFFBFFFC0002FFFA00010001FFFDFFFEFFFFFFFB0001FFFEFFF900000004FFFC0003FFFF0002FFFFFFFEFFFD0000FFFB0003FFFE000000020002FFF9FFFCFFFB0003FFFAFFFA0003FFFEFFFBFFFCFFFFFFFF000200000003FFFF00030003FFFBFFFEFFFBFFFBFFFEFFFAFFFBFFFB00010001FFFFFFFBFFFAFFFA0000FFFB
0002FFFEFFFB0003FFFEFFFF0002FFFDFFFEFFFD0004FFFA0002FFFFFFFF0001FFFEFFFDFFF9FFFFFFFF0003FFFFFFFD0001FFFF0002FFFB00010003FFFD0003FFFB0004FFFFFFFAFFFD00010000FFFB0004FFFA0004FFFF00020004FFFDFFFCFFFD00010004FFFAFFFFFFFFFFFB0001FFFEFFFAFFFAFFFAFFFD00020003FFFB
FFFEFFFAFFFBFFFE00020004FFFBFFFEFFFBFFFB00000003FFFA00000001FFFB0001FFFBFFFD000000040004FFFFFFFBFFFF0001FFFDFFFF0002FFFF000100000002FFFB0001FFFC00020000000000000002FFFDFFFDFFFA0002FFFEFFFA0001FFFE0004FFFF00000003FFFEFFFF0003FFFCFFFEFFFEFFFF0001FFFAFFFF0002
FFFEFFFFFFFCFFFB0001FFFDFFFCFFFDFFFCFFFE00020005FFFAFFFB0004FFFFFFFDFFFE00020001FFFFFFFAFFFDFFFBFFFE0005FFFBFFFF000000040002FFFDFFFE000100030003FFFFFFFB0004FFF90001FFFFFFFB00020001FFFF00020002FFFC0004FFFCFFFCFFFE0002FFFFFFFEFFFCFFFBFFFD0003FFFAFFFC0002FFFF
FFFDFFFAFFFB0002FFFC00020001FFFFFFFBFFFC0001FFFBFFFBFFFFFFFB0004FFFB0000FFFFFFFF0005FFFBFFFBFFFEFFFCFFFE0002FFFF0001FFFDFFFDFFFF0002FFFD0002FFFF000100020000FFFEFFFF0003FFFCFFFB000300030002FFFF00000001FFFC0002FFFAFFFCFFFBFFFC00010003FFFA0000FFFB00030000FFFE
0003FFFDFFFE0004FFFCFFFB00040001FFFC0002FFFA0002FFFEFFFD0000FFFBFFFBFFFF000300010000FFFDFFFCFFFE0000FFFEFFFCFFFBFFFDFFFC00010000FFFFFFFDFFFF0003FFFAFFFEFFFBFFFDFFFC00000003FFFCFFFF0001FFFF0001FFFEFFFDFFFEFFFD0003FFFE0004FFFB00020000FFFDFFFD0002FFFE00000003
00010003FFFCFFFC0002000000000001FFFA0001FFFB00010003FFFB0004FFFE0003FFFEFFFB0000FFFDFFFD0003FFFEFFFD0003000300010002FFFB000200010001FFFE00010001FFFBFFFCFFFEFFFF0003FFFD0002FFFBFFFBFFFE0000FFFF0001FFFD00020001FFFAFFFA000600020001FFFF0002FFFEFFFD000500040000
FFFEFFFFFFFFFFFF00030003FFFCFFFFFFFBFFFDFFFE00030001FFFCFFFA0000FFFFFFFCFFFE0005FFFDFFFB0002FFFDFFFBFFFCFFFAFFFDFFFEFFFBFFFBFFFB0001000100000000FFFFFFFCFFFFFFFF0001FFFBFFFE0002FFFC0002FFFF0000FFFFFFFC0003FFFEFFFBFFFEFFFF00000001FFFCFFFE0004FFFCFFF9FFFDFFFF
00010004FFFAFFFBFFFBFFFE00010003FFFDFFF900010002FFFFFFFF0001FFFFFFFD0001000000030004FFFBFFFBFFFF0000FFFFFFFFFFFDFFFE0001FFFEFFFD000500010003FFFE00030002FFFF00020004000000050000000200000004FFFBFFFD0002FFFEFFFDFFFBFFFE0001FFFEFFFFFFFA0003FFFFFFFE000300020000
0004FFFBFFF90002000300010001FFFD0002FFFFFFFCFFFD0004FFFDFFFA000100010002FFFDFFFFFFFC0000FFFF00050003FFFA00040002FFFBFFFBFFFFFFFC0001FFFFFFFF00010005FFFCFFFF0000FFFDFFFB0002000400010002000400010004FFFF00000004FFFDFFFCFFFEFFFFFFFBFFFE0004FFFF0000000500030001
00010001FFFD0003FFFD0001FFFFFFFFFFFEFFFCFFFC0000FFFF00000002FFFEFFFCFFFAFFFEFFFEFFFC000200030000FFFEFFFC0000FFFC0003FFFE0003FFFBFFFE0001FFFAFFFDFFFFFFFB0001FFFEFFFFFFFA0001FFFEFFFBFFFF0002FFFDFFFE0003FFFCFFFBFFFA000000000002FFFFFFF90003FFFDFFFB00010003FFFE
FFFB000200040003FFFC00010001FFFAFFFB00010001FFFCFFFE0002FFFEFFFB0004FFFDFFFCFFFBFFFCFFFC00010003FFFB0004FFFE0002FFFC0001FFFDFFFB000200030004FFFB0000FFFC0004FFFCFFFF000300020000FFFC0001FFFEFFFDFFFB0002FFFE0002FFFEFFFD00030000FFFD0000FFFE0002FFFDFFFBFFFCFFFF
0001FFFEFFFC0001FFFE0000FFFF0005FFFFFFFF0000FFFA00040000000300000002FFFF0002000000000006FFFCFFFEFFFF0002FFFF0001FFFCFFFDFFFD00060002FFFBFFFE0001FFFBFFFEFFFBFFFC0000FFFFFFFDFFFA000100000003FFFA0001FFFC000200000003FFFDFFFD000000030001FFFDFFFAFFFC000100020005
FFFDFFFE0001000500030005FFFFFFFD000400000002FFFBFFFF0006000200040000FFFDFFFEFFFFFFFF0001FFFDFFFDFFFBFFFD000100010001FFFBFFFB000100010000FFFE000500030000FFFD0003000300010004FFFE0005FFFE0001FFFD00020001FFFEFFFE0001FFFC0002FFFF0000FFFFFFFCFFFCFFFC0003FFFFFFFE
FFFE00000000FFFF00000001FFFF0003000100020002000400020001FFFA0005FFFDFFFFFFFFFFFCFFFE0002FFFF0000FFFBFFFC0001FFFFFFFEFFFDFFFBFFFBFFFFFFFA0001FFFDFFFD000300000002FFF9FFFEFFFFFFFA0000FFFD0003FFFFFFFEFFFEFFFDFFFF0003FFFBFFFC0001000000050003FFF90002FFFD00020002
FFFC00000002FFFF0000FFFDFFFD000000060003FFFEFFFEFFFE0003FFFC0001FFFD00030003000000010000FFFB00000000FFFD0003FFFBFFFC0003FFFBFFFE0006FFFE00000002FFFCFFFEFFFA0002FFFFFFFD0001FFFF0002FFFCFFFBFFFB0000000100020001FFFD00000000FFFB0002000200000004FFFD0001FFFEFFFE
FFFDFFFB000100010000FFFFFFFA0004FFFEFFFC0000FFFC000200000002FFFFFFFB0002FFFF000000040004FFFAFFFD0000FFFB0001FFFCFFFDFFFCFFFF0001FFFDFFFAFFFEFFFD0001FFFF0003000200000004FFFCFFFFFFFE00010002000300030003FFFC0000FFFD00010004FFFDFFFD00050004000200030001FFFEFFFD
FFFEFFFFFFFCFFFFFFFCFFFEFFFE00000004FFFEFFFAFFFE0002FFFD00030005FFFC0001000600020004000400050000FFFCFFFCFFFC0003FFFB0002FFFD00030000FFFFFFFA0002FFFDFFFFFFFB00040002FFFD00030003FFFDFFFD0000FFFCFFFCFFFEFFF90001FFFA000000010001000300030004FFFBFFFE00020005FFFD
FFFE00040005FFFFFFFB0005FFFD0003FFFF00030004000500020001FFFE0006FFFCFFFE00010000FFFDFFFCFFFFFFFBFFFF00010002FFFDFFFE0003FFFF0002FFFF00040001FFFDFFF9FFFD0000FFFAFFFCFFFFFFFFFFFA0001FFFFFFFEFFFC0004FFFAFFFFFFFFFFFEFFFE0005FFF90000FFFFFFFF0003FFFFFFFF00030001
0001FFFEFFFF0001000000020006FFFEFFFEFFFF000200050001000300000000000200010001FFFCFFFC000400020000FFFC00010001FFFEFFFC00020000FFFE00020006FFFB0004FFFBFFFF0004000300000004FFFA0000000100010001FFFDFFFE0003FFFDFFFB0003FFFEFFFDFFFFFFFDFFFE00020001FFFEFFFE00010002
FFFB000100020001FFFA00030004FFFFFFFF000300020006FFFAFFFB0001000100030003000100040001FFFCFFFBFFFCFFFCFFFEFFFDFFFC0002000500000005000000040002FFFC0002FFFF0003FFFEFFFAFFFEFFFDFFFF0003FFFD0000FFFEFFFD0001FFFEFFFC00000000FFFD00020001FFFF0001FFFB00030002FFFF0000
0000FFFD0000FFFCFFFEFFFEFFFFFFFF00000001000400050001000000050003FFFEFFFC000000030002FFFF0001FFFB0001000200040006FFFB0001000300010001000500010004FFFF00050005FFFBFFFF00040000FFFCFFFFFFFC0000FFFAFFFFFFFB0005FFFE0000FFFE0006FFFE0001000500030003FFFD000100030002
0002FFF900030000FFFE0003FFFE0001FFFEFFFC0004FFFAFFFE000400010003FFFFFFFF00000000000100050006FFFA0001000200040003FFFD00020001FFFC0004FFFAFFFE00030001FFFF0001FFFE0000FFFB0002FFFFFFFFFFFCFFFBFFFB0000FFFB0002FFFD0003FFFD00020000FFFFFFFEFFFD00000003FFFF0003FFFF
000100030002FFFFFFFCFFFAFFFE00010004FFFCFFFF0003000000020004FFFE0003FFFD0004FFFF000400020000FFFFFFFCFFFE000600000000FFFD00010000FFFCFFFDFFFBFFFDFFFBFFFEFFFCFFFD0001FFFBFFFA00030001FFFAFFFF0002FFFE00040002FFFFFFFAFFF9FFFEFFFFFFFCFFFCFFFD0000FFFEFFFDFFFB0001
0004FFFEFFFE0003FFFDFFFAFFFD0000FFFCFFFF0003FFFBFFFB000100040006000200000003FFFE0000FFFCFFF90002FFFCFFFD0005FFFC0002FFFD00000001FFF90004FFFCFFFD0000FFFF0002FFFE00010000FFFEFFFE0003FFFBFFFB00020004FFFF00040003FFFFFFFBFFFD000000000005FFFBFFFF0000000300020001
FFFDFFFD0004FFFBFFFFFFFE0000FFFCFFFC0002FFFCFFFD00030000FFFD0000FFFB0003FFFE000200010000FFFE0003000300000002FFFE0005FFFB00010002FFFE0004FFFCFFFAFFF9FFFE0004FFFE00040005000200010000FFFF0001000700020002FFFC0003FFFE00000005FFFD0001FFFDFFFA0003FFFFFFFDFFFDFFFB
FFFC0002FFFE0002FFFA000100000004FFFD0003FFFC0005FFFD00010000FFFCFFFF0005FFFEFFFF0001FFFCFFFFFFFDFFFC000300030004000300030002FFFB00000003FFFD0003FFFB0005FFF90002FFFF0002FFFFFFFAFFFB00010003FFFDFFFEFFFD0003FFFA0002FFFAFFFDFFFDFFFB00040002FFFB00050000FFFDFFFA
0001FFFD00040003FFFB00040000000400020000FFFEFFFBFFFEFFFBFFFFFFFEFFFFFFFBFFFBFFFF0000FFFF0001FFFF000200030005000000040003FFFB00040000FFFFFFFEFFFD0002000300040000FFFC0003FFFC0004FFFFFFFE00050000FFFF00000000FFFA00000001FFFEFFFF000200020003FFFF0004FFFC00050000
00000001FFFEFFFDFFFE00020000000000010001000300040001FFFAFFFE00070002000000010002000100040001FFFFFFFB00000003FFFD0002000300040000FFFC00020002000100040001FFFFFFFFFFFC0001FFFA0001FFFBFFFFFFFE000600010004FFFB00010001FFFB0004FFFEFFFD000500030000FFFCFFFD00030000
0003FFFBFFFE00040002FFFDFFFD0000FFFFFFFE00040003FFFDFFFAFFFD0002FFFE0003FFFC0002FFFB0001FFFDFFFEFFFD0003FFFC0001FFFE0003FFFBFFFCFFFAFFFDFFFCFFFFFFFC0002FFFFFFFE0006FFFFFFFE00000005FFFF000000060003FFFFFFFE0003FFFDFFF9FFFFFFFC00000002FFFB0003FFFE0003FFFEFFFA
FFFD000200000001FFFB00000007FFFF0002FFFDFFFE0004FFFC0002FFFD00010000FFFC0000FFFC000400050000FFFDFFFC0002FFFE0005FFFB0001FFFC000200030004FFFAFFFBFFFCFFFE00030003000300020002FFFC0002FFF900020003000300020001FFFDFFFEFFFC00010000FFFE00010000FFFD0002FFFB00030001
00020004FFFD00020002FFFCFFFE0004FFFC00030000FFFDFFFF000000010002FFFFFFFFFFFD0003FFFD0005FFFD000400020002FFFEFFFC0001FFFF0000FFFEFFFFFFFEFFFEFFFCFFFBFFFC0002FFFF0003FFFCFFFFFFFB0001FFFEFFFE00000006FFFDFFFDFFFBFFFDFFFAFFFB0004FFFDFFFE00000002FFFA00000000FFFB
FFFFFFFFFFFBFFF90000FFFFFFFD0001FFFD0002FFFC00000001FFFDFFFDFFFFFFFC0004FFFC0000FFFEFFFBFFFCFFFDFFFEFFFF000300050003FFFF0003FFFC0005FFFEFFFDFFFF000200020000FFFCFFFF0001FFFFFFFB0004000000000001FFFF0002FFFE0003FFFF0000FFFD00000004FFFEFFFEFFFA00000003FFFE0004
FFFE0003FFFE0003FFFF0004000400050000FFFEFFFBFFFEFFF900030005FFFCFFFDFFFB000200000001FFFF000100000006FFFCFFFEFFFE0001FFFE0000FFFBFFFD0003FFFAFFF9FFFD00000005FFFBFFFEFFFBFFFF0001FFFD00030002000600040004FFFD00040002FFFBFFFBFFFE0000FFFB0001FFFEFFF90004FFFCFFFF
000000010006FFFFFFFBFFFE0001FFFDFFFCFFFEFFFFFFFF00000004000600010000FFFE000000020005FFFDFFFC00060000FFFDFFFB00040003FFFE000000010003FFFE0002FFFC0006000400010002FFFD0001FFFDFFFCFFFC0003FFFDFFFD0000FFFDFFFAFFFF00030003FFFBFFFE0001FFFF0000FFFDFFFE00000004FFFB
FFFD0002FFFD000100000001FFFFFFFC0001FFFEFFFE0003FFFFFFFE0002FFFEFFFD0004FFFDFFFD0004FFFD0003000600030000FFFE000000020003FFFE0004FFFFFFFF0000FFFA00040005FFFF00020005FFFFFFFE0001FFFD00010001FFFD0003FFFEFFFE0000FFFCFFFCFFFF00040003FFFCFFFCFFFB0002FFFFFFFDFFFC
0001FFFFFFFEFFFD00030000000300040002FFFF00010005FFFC00010003FFFD0000FFFDFFFBFFFDFFFCFFFC0000FFFDFFFF0002FFFCFFFDFFFD00020002FFFEFFFFFFFF0003FFFA000300050000000300040003FFFF0003FFFF0003FFFA0001FFFF00020001FFFFFFFBFFFCFFFDFFFDFFFBFFFF00030000FFFDFFFE0003FFFA
FFFE0001FFFC000000030003000000040000FFFAFFFEFFFD00030001FFFDFFFBFFFCFFFCFFFC00050000000300010000FFFB000400000000FFFCFFFE0001FFFE0003000000010000FFFFFFFFFFFBFFFA0002FFFE00010001FFFC00030001FFFDFFFBFFFDFFFD000500040002FFFB00030004FFFDFFFDFFFDFFFC0003FFFD0001
FFFB000400010001FFFC0000000600020004FFFEFFFCFFFEFFFEFFFE000500010001FFFFFFFB0000FFFFFFFDFFFF0005FFFD0003FFFBFFFCFFFEFFFF00000000FFFDFFFFFFFE00070001FFFD0001FFFB0002FFFC0003FFFEFFFCFFFF0004FFFDFFFFFFFDFFFFFFFC00010002FFFF00020002000200010001FFFD0002FFFC0001
FFFE00050001FFFEFFFE0001FFFDFFFE00020004FFFFFFFAFFFE0003FFFFFFFE0000000000030004FFFA0002FFFEFFFE00010002FFFE0001FFFEFFFD000200010001FFFC0002FFFC00040003FFFBFFFEFFFDFFFC0000FFFC00000001FFFE0003FFFEFFFE0003FFFDFFFFFFFC0004FFFFFFFDFFFAFFFF00010002FFFF00030000
0000FFFF0002FFFE0002000000040001FFFD0004FFFFFFFBFFFBFFFAFFFFFFFE00030005FFFF00060004000200000002FFFB000100040002FFFAFFFCFFFDFFFCFFFCFFFA0003FFFF00000003000300020004FFFE0003FFFEFFFA000300040005FFFC0003000400020001FFFDFFFDFFFFFFFEFFFF0000FFFD0000FFFEFFFF0003
FFFA0004000300040003000200060006FFFBFFFE0002FFF9FFFAFFFEFFFEFFFD0005FFFEFFFC000300010001FFFC000100010000FFFD0002FFFE0002FFFAFFFE0002FFFC00000001FFFE00020000FFFD0000FFFF0000FFFCFFF9FFFDFFFF00040004FFFF00010003FFFC0003FFFBFFFC000300050001FFFDFFFCFFFA00020003
FFF600030001FFF70006FFFDFFFE00030004FFFA00080002FFFFFFFF0002FFFD00010004FFFC0004FFF2000800000004FFFEFFFDFFF700020001FFFC0002FFFD0004FFFFFFFA0003FFFB0002FFF70002FFFA00030000FFFBFFF000080002FFFF0001000500030000FFFD00000000FFF70008000000050003FFF40000FFFF0000
FFFFFFFBFFFEFFF9FFFCFFFBFFF600060006FFF40005FFFF0005FFFCFFF1FFF8FFFCFFFBFFF8FFF6FFF8000D000B00020004FFF7FFFFFFF3FFFC00020002FFFD0003FFFC0004FFF90008FFFEFFFBFFFA0000FFF7FFFFFFF1FFF10002FFFDFFFD0002FFF700060003FFFAFFFF0000FFFA0000FFFEFFF80005FFFC0008FFF20003
0001FFF9FFFEFFF50001FFF2FFFB00030006FFF2000A000600080001FFF60000FFFDFFF7FFF9FFF8FFF6FFFF000AFFFA0007FFFB0001FFFDFFEF00020009FFFEFFF80000000100020008FFF9FFF200030000FFFD00020003FFF4FFFFFFFFFFFCFFFCFFF8FFFDFFFFFFFFFFFF000100040003FFF9FFFDFFF0FFF6FFFBFFF4000B
FFFEFFF4FFFCFFFEFFFD0002FFFBFFFD00000001FFFCFFFC00070006FFFB00040004FFFB00010001FFF8FFFFFFFFFFF9FFFCFFFF0005FFFFFFF8FFFD0004FFF4FFF9FFFB0005FFFE00040006FFFD0006FFFE0007FFFC0003FFFAFFF5FFFD00040006FFFFFFF8FFF6FFFC00030009FFFC0000FFF5FFF8FFF6FFF80000FFFEFFFA
FFFFFFF9FFFFFFFFFFF70002FFFC0001FFFD0000FFFCFFFC00010003000300030005FFFEFFFEFFFFFFFC00000004FFFC000300020000FFFC000300050006FFF2FFFBFFFF00010005FFFD00000006FFFE00000005FFFE00060003000000030000000A00050000FFFC000500010003000000040000FFF80006FFF900020005FFFE
FFF7000E000DFFF30006000500090005000700050002000500090000FFFE0002000F0005FFF6000600010001FFFDFFFCFFFE0000000200090007FFFEFFFAFFF30004FFFF00090003FFFE0001FFFD000BFFF900040005FFFDFFF40004000100050003000A00000003FFF400050009FFFEFFFE00040008FFFE000300060003FFF3
FFFBFFF90009FFF5FFFA000000030007FFFCFFFAFFFAFFFE000F00020003001000100003FFFDFFFDFFFC00100002FFFC0005FFFEFFFEFFFF0009000C0005FFFB00010004FFFC00050002FFFF000200000006FFFF000A000100010005000200000014000E0006FFFFFFF5000A0007FFF80001FFFF00000008FFFC000C000C0008
FFFEFFFF000BFFFF0003FFFDFFF80001000400060006FFF40005000CFFF200120001FFFBFFFD0005FFF60009000E0002000000060005FFF8000100040002FFFA0003FFFAFFF7FFFD000800000000000DFFFF000200090006FFF300010000FFFE0009000700020003FFF70007FFFCFFFEFFFF00020004000000000005FFFD0005
FFFBFFF5FFFCFFFEFFFDFFFCFFFAFFFBFFF8FFF6FFFDFFF800080009FFF900020006FFFDFFFAFFFEFFF9FFFDFFFAFFFDFFFFFFFB0000FFF9FFFF00020004FFF5FFF8FFFDFFFFFFF70006FFFE0002FFFD00020001000000050000FFF8FFF800000017FFF4FFFAFFFA000400010009FFF5FFFFFFF600020000FFF9FFFF0001FFFB
FFFDFFFB0002FFF700010001FFFAFFFCFFFEFFFF000100050006FFFE0001FFFA0000FFFE000100030003FFF9FFFEFFFB000000020003FFFDFFFFFFFD0003FFF6FFFF0002000200030005000300050003FFFC0004FFFE00000001FFFAFFFFFFFB0004FFFEFFFB000500080003FFFD0000FFFBFFFC00000004000000030001FFFE
FFFD00080003FFFF000000090002000300030001FFF70005FFF900060005FFFE000FFFFFFFFF000600020006FFFD0003FFFA0000FFFC00050012FFFBFFFEFFF3FFFFFFFD0003FFFCFFF9FFFFFFFF0003FFFAFFFEFFFCFFFEFFF900090004000800070004FFFFFFFBFFF4FFFA00050000000300060003FFF7000500000002FFEE
FFF6000000080002FFF600020004FFFCFFFB00010000000B000800030001000700040007FFF5000200010003FFFC00040009FFFCFFFE00060007000400050003FFFB0002000600070002FFFE0006000200040003FFFC0006FFFFFFFE000BFFFE00040006FFFD0004FFFA00100004FFFF00000001FFFB00000004000400060003
000B00030003FFFAFFF1FFFFFFF60000FFF5000100010000000500080000FFFE00030001FFFA0000FFFC00070007FFFA0005000400020001000100020001000000040003FFF00001000A0000FFF70000000100010005FFFFFFF9000B0004FFFC0004000600000003FFF60004FFFEFFF900040008FFFA0004FFF5000300010008
FFFEFFF70000FFF4FFF9FFFE0004FFFFFFFBFFFFFFFDFFFE00040001FFF90006000500020003FFFDFFFE0007FFFCFFFA0003FFFF0000FFF9FFFB00010002FFFE0000FFFE000400010003FFFEFFFF0007FFF80006FFFF0005FFFFFFFDFFFEFFFF0009FFFD0008FFF6000300070003FFF80002FFFB00040002FFFEFFFB00010001
FFFDFFFDFFFEFFFCFFFFFFFFFFFDFFFFFFFC0003FFFA00070002000600000003FFFB0006FFFE000000000001FFFBFFFFFFFA0003FFFD0007FFFDFFFA0003FFF800040000000300010008FFFA00060002FFFD0004FFFC00060005FFFB0005FFFC000800040002FFF60004000AFFFF00020001FFFEFFFAFFF80002FFFC0003FFFC
FFFDFFFF0004FFF900000004FFFCFFFFFFFDFFF8FFFE0000FFFE00040001000300010004FFFBFFFFFFF70008FFF70002FFF9FFFE00050009000800040003FFF70002FFFB000A0000FFFB0006FFFF000B00060008000100000001FFFF0007FFFB0002000500050001FFFD0008000D0001FFFFFFFF000AFFFAFFFF0007FFFAFFF6
FFFD000700050001FFFE0001FFF4FFFD0005FFFCFFF7000500050001FFFA0007FFFE0008FFF7000200010001FFFA000100050002FFFA00060003000BFFFDFFFCFFFA0000FFFB000600070002FFFB000000030007000300040004FFF60005FFF70001000200020002FFFF0018FFF8FFF40004000CFFFC0005FFFF000600000003
00060008FFFBFFFBFFFC0003FFF7FFFAFFFFFFF4FFFDFFFD00050002FFFDFFF700040004FFFD0001FFFD000A0004000500070003FFFE0001FFF500090000000500050001FFF4000B0004FFFF0000FFFEFFFFFFFC00060007FFFFFFFC00050003FFF2FFFB00080009FFF6FFFEFFFF0002FFF8000600000000FFF70006FFFB000F
00030002FFFD000000040005FFF70002000100030001FFFE00000008FFFAFFFB000E000200000000FFF70005FFFE000DFFFCFFFEFFFE00060004FFFA00030003000AFFFE0000FFFFFFFF0008FFFD0007000000030001000000010005FFFAFFFA00020000000100060000FFFE0008FFFD0000FFFA0000FFFEFFF90005FFFEFFFD
00000007FFFDFFFD00060000FFFD00080005FFFD0002FFFEFFFF0005FFF6FFF8FFFEFFFBFFFC0004000300020004FFFB0003000800040003FFFE00020007FFFA00020001FFFE00020006FFFA000000000000000600010006000200000002FFFB00010002FFFFFFFA00080007FFFB0002FFF9FFFF00000001000AFFFDFFFA0004
0003FFFB0006FFF90005FFFEFFF70004FFF8FFFBFFF9FFFA00030007FFF8000D0004FFFCFFFDFFFFFFF10006FFF30006FFF00002000A0007FFFDFFFFFFFDFFF90008FFF30013FFF2FFFC0009FFF4000600050006FFF9FFF7FFFEFFF2FFF700000007FFFFFFFFFFF6FFF40004000FFFF40002FFFB0005FFFE0001FFFC0002FFFA
FFFCFFFF0006FFF9FFF60001FFF9000AFFF8FFFBFFFA0003000A0007FFFEFFF70002000800000000FFFEFFF6FFFBFFFA00070001FFF5000200010003FFFD0001FFFFFFFFFFF9FFFB00020004FFF5FFF7FFFD000BFFF7FFFCFFFF0000000200000006FFF900040006FFFF0010FFF5FFF3FFFD0002FFF6000A00030001FFFD0000
00140009FFFAFFF9FFFC00050007FFFF0001FFF0000BFFF3000200020000FFF0FFFAFFF9FFFC0004FFF1000B0006FFFF00160007FFF90006FFFB000AFFFC001200050001FFEDFFFB0006FFFC0001FFF9FFFFFFF80000FFFAFFF9000400060004FFF2FFFB00060008FFF7FFF1FFF8FFFCFFF9000AFFFB000AFFF20002FFFB0018
0009FFFB00050001FFFA0003FFFD0001000000060000FFF5FFFD0008FFF6FFFD000500060002FFF4FFF40001000600010002000500010008FFFDFFFAFFFE000600070009FFFB0001FFF5000BFFFA000300040000FFFA000000010006FFFE000700010000FFFEFFFD0002FFFE000E00020003000100020005FFFCFFFC00080008
FFFD0007FFFCFFFB00030000000500020005000C00010001FFFF0005FFF60002FFF6FFFEFFFD0005FFF50001FFFE0002FFFC000E00030008FFF90006000600030000FFFEFFFBFFF6000500010006000600000005000000070006000300040005000600080002FFFBFFFE000D0006000B0002000AFFFCFFFE000A000400060004
0001FFFAFFFCFFFF00060005FFFF0008FFF7FFFFFFF5FFFFFFF70004FFF600050004FFFDFFFCFFFFFFF50000FFF70008FFF7000000080003FFFB00080003FFFFFFFFFFF60007FFF4FFFF00050002000500030008FFFF0001FFF9FFFFFFFBFFFF0009FFFE0005FFFEFFFB00070011FFF3FFFB000500070000FFFE0000000AFFFF
0001000B00070006FFF20008FFFD000AFFF90002FFFE0008000500030003FFF9FFFD000BFFFB0002FFFDFFFA0003FFF800020000FFF0000300070006FFF50002FFFC0004FFF40002FFFD0008FFF9FFF7FFFD0006FFFCFFFEFFFBFFFE0003FFFFFFFD000500030004FFFD0013FFF8FFF000080003FFFD00130008000900060000
000D0008FFFCFFFFFFF90001000200040002FFF9000DFFFB0001FFFD0002FFEF0005FFF8FFFD0002FFF700130008FFFE00110006FFF4000EFFFA000AFFFC001D000B0006FFEFFFFB0005FFFCFFF40003FFFFFFF80007FFFDFFF30009000B0008FFFB0008000F000BFFFCFFF2FFF3FFFC0000000DFFFB0006FFF3000B0001001C
00070006000000090002FFFEFFF90006000300090003FFF700030002FFFE00010000FFFB0003FFF8FFF5FFF7000600060004FFFB00000002000300020003000000050006FFF9000500020007FFF7FFFE00080001FFFB0005FFF90007FFFC00040003FFFFFFFE00040006FFFF000B00040007FFFF0009FFFDFFFE000000030002
0005FFFBFFFEFFFEFFFDFFF8000400080002000AFFFBFFF900070002FFFFFFFEFFFEFFF5000400020000000100030001FFFE0008000000040006FFFC000400030008FFFA0001FFF4FFFE00060006000C00040004FFFB0002000200060000000500050001FFFEFFFA0008000A00060007000300010001FFFF0002FFFF00070000
FFF900000000FFFD0001FFFE00010006FFF70005FFF300010007FFFBFFFB000400010003FFF6FFFEFFF70006FFF80004000100050002FFFD0000FFF9FFFFFFF70002FFF4000DFFF3FFFD0000FFFE00020002000BFFFFFFF80002FFF80005FFFC000800000006FFF0000200030009FFF8FFFA0004000AFFFD000000010002FFFA
FFF5000400090000FFEC0005FFF30002FFF5FFFE000A0005000800070005FFFA0004000B00000008FFFBFFF7FFFBFFF8FFFB0000FFFB000B0008FFFBFFF6FFF9FFFD0001FFF70003FFFD0005FFF9FFF4000300090003FFF9FFFCFFFF0006000000010009FFFEFFFDFFFB000DFFF5FFF3000E0001FFF4000BFFFE00080005FFF1
0004000CFFFA0001FFF3FFF900040003FFF8FFF8000BFFFA0005FFFC0003FFF00012FFF6FFFD0005FFF500150007FFFB00130002FFFE0007FFFA000AFFFB0017000F0009FFF1FFFE0007FFF7FFFD0001FFF900010000FFF9FFF50009000A0000FFF900030010000BFFF7FFF6FFF2FFFD0002000AFFFB000A0000000D0004001B
0003FFFA000400070006FFFCFFFBFFFD00020002000BFFF400060000FFFF00000008FFF7FFFF0001FFFAFFF9000500030008FFFFFFFFFFFAFFF9FFFFFFFF000300000001FFFD00050001FFF9FFF4FFFD0005FFFB0001FFFCFFFA0005FFFFFFFE0003000300020009FFFBFFFDFFFC0005FFFCFFFD00050004FFFF0005FFFA0002
FFFFFFF9FFFE00040005FFFA00040006000600080009FFF100070009FFFF0002000CFFFC00000003FFFAFFFC0003FFFCFFFE000500040007FFFF0004FFFC00060004000200000000FFFC0007000100070007000AFFFE000A00060006FFF90001000D0001FFFC00040003000B000D0003000000070003FFFA000CFFFC00020005
0007FFF8FFF7FFFF0008FFFFFFF70007FFFC000EFFF0FFFD0009000FFFF8000BFFFBFFFEFFF9FFFBFFFD000DFFF80012FFFB0000000F0008FFF2FFF9FFF8FFFE000DFFF70013FFE6FFF800080003001200070012FFFB0001000AFFF2FFF3FFF60009FFFAFFFEFFED0008000C0016FFF6FFF700040007FFF60005000300060004
FFF60007000DFFF7FFF90003FFF90004FFF4FFFCFFF90004000700030008FFF4FFFE0008FFFCFFFE0000FFFAFFFBFFF4FFF2FFFFFFF6000200040000FFF5FFF0FFF80000FFFA000AFFF60003FFFCFFFAFFFE0004FFFDFFF80002FFF9FFF90004FFF900060001FFFD0003000AFFF3FFF6FFFE0002FFF800040000FFF90005FFEC
0002FFFFFFFE00020004FFFCFFF9FFFFFFF7FFF60007FFF90004FFFEFFFEFFF00004FFFA0000FFFDFFF30011FFFB000A0004FFFC00010001FFF30008FFFC000F0002000EFFFB0008FFF9FFF3FFFDFFFFFFF7FFF9000C000100030006000A0005FFF9FFFE000A00010000FFF8FFF6FFFB00020005FFFE0009FFFE000DFFFD0016
00050000000B0008000AFFFFFFFAFFFEFFFFFFFD000CFFF70007FFFF0008FFFD0005FFFAFFFCFFFCFFF8FFF500030010000200020001FFFAFFFB0002FFF70004FFFC000BFFFB0010FFFB0000FFFEFFFCFFFFFFFD0003FFFE0001FFFEFFFC0010FFFB00030001000EFFFCFFF5000300060001FFF800060002FFFCFFF9FFF7FFFD
000DFFF800070003000BFFFF000100050009000A0007FFFC0004000AFFFF00040001FFF700030005FFF50007000300130006000A0002FFFCFFF9FFFFFFFE00050001000500030004FFFE0006000A00090004000F00060004FFFE00040001000A00050008FFFF0002FFF9000B000D0006FFFF00000008FFFF00090007FFFE0007
00010008000D0004000E00000010FFFBFFF40005000BFFFA0007FFFFFFFF0001001200070001FFFEFFFF0003FFF50000000D0001FFFAFFFC0004FFFA0003000CFFFE0011000000070004FFFC001B0003FFF4FFFA00040005000DFFF6FFFA000B00050006000300000008FFFFFFFE000EFFF90005FFFC000B0005FFFE0007000C
0000FFF60004000D000E000A0009FFFD00030013FFF9000300020002FFF10010000D00090000000B00060002000EFFFF00040004FFFD000600100000FFFEFFFFFFF800070011FFF8FFFE000D000D000AFFFA000C00040000FFFDFFF3FFF70002001300080007FFFBFFF50008000EFFF100040005FFFC000300130002000F0003
FFFD000100080004000100000002FFFDFFFFFFF6000400090004FFFBFFFAFFF9000000090001000C0005FFFE0005FFFAFFFFFFFDFFFF000C00060001FFFEFFFBFFFD000FFFFC00020006FFF30007FFF40009FFF2000A000B00000000FFFEFFFFFFFC0006FFFA00030001FFF4FFF2000400050007FFFF0009FFFE000200060003
FFFEFFF5FFFF0000FFFD000000030000FFFF0002FFF4000A00020001FFFC00050003FFFB00030007FFFDFFFAFFFBFFFCFFFFFFF70001FFFE00020008FFFCFFF9FFFAFFFD0005FFFA0003000A00030006FFFAFFFCFFFF00030004FFFAFFFC00000004000400030000000600020001FFF9FFFD00060002FFFEFFFB0001FFFFFFFC
0000FFFFFFFBFFFBFFF800020000FFFBFFF3FFF6FFF3000AFFFD00060000FFFDFFF8FFF9FFFAFFFA00030000FFFF00080004FFF70007000100030006000BFFF50004000000030005000500060002FFFF000000000001000700040002FFFDFFFEFFFFFFF9FFFBFFFF0003FFFEFFFD000A0005FFFAFFFDFFFEFFFAFFFBFFF80004
FFFC00090010FFF7FFFD00010006FFFCFFF70000FFFDFFFEFFFAFFFC0002000800140005FFECFFF10003FFF8FFFD0002FFFAFFFEFFFEFFFE0001FFFDFFFAFFF3FFFD00070003000BFFFEFFFC000F0001FFFFFFFD00080006000300020004000AFFFE0000FFF60003FFF8FFFC0003000AFFFCFFFCFFF8FFFFFFF900010006FFF9
FFFAFFF50006FFFBFFF400020002000400070004FFF3000E000D00080001000AFFF70006FFFFFFFC00050009000DFFF4FFFAFFFF0005000200120008FFFE0001FFF5FFFA00050002FFF8000F000CFFFFFFFA000600050000FFFD000700050009000800020009FFFEFFF900070001FFFE00010004FFF200020007000100090001
FFF700020009FFF7FFFF000AFFF8FFFDFFFDFFFC0005FFFC000B0001FFFE0004FFF3FFFFFFFFFFFEFFFB000A0005FFF9FFF100040003000500020002FFFDFFF2FFFCFFFDFFFCFFFF000600010004FFFC000BFFFD0006001000010004000CFFFBFFFD0001FFFEFFF7FFFB00020004000000030001FFF9FFFEFFFD0000FFFCFFFC
0005FFF80006FFFA0001FFF6FFFA0002FFFAFFF9000300030001FFFCFFF50002FFFAFFF7FFFDFFFCFFFFFFFDFFFB000400050009FFFC00060001FFFE0002FFF8FFF900000000FFFC00040005FFFFFFFEFFFB00000005FFFD00080005000100000003FFFC0002FFFDFFFDFFFA0006FFF90002000600010000FFF3FFFEFFFAFFFB
FFFDFFFF000BFFF4FFFC0002FFF9FFFCFFF60000FFFA0004FFFE00010001FFFDFFF70006FFFD00000009FFFB000100050000FFF60001FFFCFFFF00040007FFF5FFFBFFFA0001000800070012FFFB0001FFFB00030000000B000C0001FFF7FFFBFFFCFFFDFFF90003000AFFFC0004000A0002FFFBFFF5FFF8FFF0FFFB0000FFFA
FFFC000E0006FFFFFFFA00020004FFFFFFF0000000000009FFF3FFF80008FFFF000B0008FFEFFFFE000FFFFC000AFFFB0009FFFEFFFD0000001300040003FFEDFFF5FFFC0005000E0002FFFE000EFFFAFFFAFFF1FFFB0005FFF6000B000E0000FFFD000EFFFD0002FFFAFFFFFFFA00070006FFF8FFFBFFFDFFFAFFFB000AFFF7
FFF7FFFF00010000FFF3000F000100020000FFFFFFFE00160004000B0003000000000014FFF8FFFC000A0003FFFC00030005FFF7FFFFFFFD000A00090004000BFFF10003000AFFFDFFFD000500090005FFF6000B0004000F000300090008FFFAFFFCFFFC000AFFF8FFF60013000300070006FFFBFFF80000FFFEFFFF00030001
00060008FFF2FFF8FFF60002FFFB000200010004FFF40002000600060003FFFCFFF4FFFF00000001FFFD000F000800020006FFFF0010000BFFFB00090001FFFF000DFFFEFFF5FFFD000D0003FFFAFFFE0002FFFD00000005FFFC000B000EFFFC000000000006FFF5FFFE0001FFFBFFFC00020007FFF6FFFDFFFA0000FFFC0008
0001FFFA0008FFFCFFF4FFFFFFFC0004FFF7FFFC00000003000400030001FFFC0001FFF7FFFBFFF8FFFE0004FFFBFFFF0001FFFC00000000FFFF0000FFFF0004FFF8FFFF000300000005FFFF00030007FFFD00010002FFFD0001000500090007FFFDFFFE0007FFF3FFFFFFF9000EFFFF00030006FFFFFFF8FFF800040000FFF7
00030002FFF8FFFFFFF9FFF9FFF8FFF8FFF6FFFEFFFA0008FFFF0001FFFCFFFBFFFF0002FFFEFFF80004FFF9FFFE00010003FFF5000100030001FFFD0009FFF90003FFFCFFFD0004000D000800030000FFFAFFFB00000007000400040002FFF2FFFBFFFCFFFD00010001FFFF00050007FFFFFFFEFFF5FFFAFFFBFFFCFFF9FFFB
FFFD00060006FFF9FFFA000A0000FFFCFFF3FFF5FFFE0005FFF6FFFF00050000000A0001FFF5FFF90002FFFAFFFDFFFD0005FFFDFFFE0005FFFC00050006FFF4FFFBFFFD000C00100005FFFA000A00030001FFF600040000FFF5000C0010FFFCFFFB0001FFFFFFFF00070003FFFD000D0005FFF4FFFB0007FFF5FFFBFFEEFFF8
FFF5000B00000000FFF80009FFFDFFFDFFFFFFFA0000000900040009FFFA0009FFFC000EFFF3FFFE0004FFFCFFFBFFFBFFFBFFFCFFF90003000300040006FFFDFFF9FFF40007FFF90004000600050002FFF20008FFFE0009FFFBFFFFFFFEFFFB0005FFEFFFFD0002FFF90017FFF9FFFB0000FFFFFFF40005000BFFF700060002
00030007FFFBFFFFFFF60004FFFCFFFB00010001FFF6FFF8FFFDFFFFFFFCFFFC0004000800080008FFFE000BFFFDFFFEFFFD00060017000DFFF9FFFAFFFEFFF800170001FFFA0001FFFFFFFAFFFEFFF70005FFF60004000900040004FFF90003FFFBFFF8FFF700020002FFF7FFF7FFFFFFFEFFFDFFF50001FFFEFFFCFFF40000
0002FFF7000E00040002FFFCFFFB0002FFFEFFFE000000060008FFFBFFFF00050008FFFD00030001FFFC0000FFFA00040005FFFB00000006FFF8FFFDFFFDFFFF0002FFFB000A0002FFFE000400030012FFFC00020001FFFD000B0002000000040005FFF10007FFF7000300030008FFFC00010003000B0001FFFCFFFAFFFAFFF7
FFFC00040003FFF500010004FFFBFFF50000FFFC0001000BFFFFFFFFFFFC0008FFFB0002FFFB000200030006FFFEFFFFFFFEFFFA00090003FFFCFFFB0000FFF900070006000100030006000100030000000200050002000600060003FFF7FFF6FFF6FFF2FFF7000100020002000500060001FFF70001FFF9FFFFFFFCFFF80002
FFFA00030003FFFC0002FFFD00000005FFF8FFFEFFF6FFFFFFF700000002000600030001FFF7FFFBFFFA0002FFFC000A0001FFFF0001000100050005FFFEFFFDFFFDFFFE000C0002000600030004000A000A00080003FFFBFFFB0002FFFA0001FFFFFFFFFFF9000100050006000600020001FFF400020000FFFFFFFAFFFC000D
FFFF0007FFFD000200030009FFFEFFFC0005FFFFFFF5000AFFFB00170005FFFBFFFF000FFFFAFFFD0007FFFFFFFDFFFC0005FFFAFFFA00060003FFFB000400010000FFF80000FFF7000AFFFC00020002FFF5000A0000000500010002FFFDFFFF0001FFF3FFFB0006FFFE0019FFF8FFFAFFFC0003FFF7000A0005FFF6FFFB0000
00110005FFF8FFFE0000FFFE000BFFF80002FFFB00080000FFFBFFFA0001FFF6000500060009000F0002000C0001000A000B000800190017FFF80002FFFF00030012000300030000000BFFFB00070003000FFFFC000300010003000300040002FFFAFFFA0002000C0008FFF700010003FFFEFFFF00040004FFFDFFFFFFF6000C
0002FFFB00020009000B0003000200070004000BFFFD0007FFFE000800010009000A00040001FFFF00050002FFF5000E000A000A00030012FFFE0003FFFD00090000000E000E0002FFFB0005000A000E0004000BFFFE00070008000300010005000EFFFD0007000AFFFE00050014000CFFFF000B00120000FFFFFFFE0000FFFF
000700000001000100060006000200020006000000040005FFFAFFF9000100070001FFFC000300050006FFFF0008FFFF000700030009000B0001FFFB0008000600050003FFFEFFF3000300010010000700090005000000080000FFFCFFF7FFF600050003FFFCFFFD000400060004000D000000020005000200080000FFFD0008
FFF80004FFF6FFFD0004FFFD00060004FFEE0002FFF90002FFF200050003000A00080007FFF0FFFA0002FFFFFFED0005FFF2FFFA0004FFFFFFF300050002FFF30001FFF9001300010008000A000D000C000300060002FFFF000100010000FFF60004FFFBFFF7FFFA00050014001000070006FFF2FFFAFFFEFFFCFFF4FFFE0001
0000000EFFFEFFFCFFF600080002000400070001FFF30009FFF5000CFFFEFFF9FFFE000FFFFF00020001FFF3FFFFFFF7FFFB0008FFF8000E0000FFFF0005FFFEFFFCFFFD000100030003FFFE00030004FFFA000FFFF80002000200050004FFFC000200030006FFFF00000014FFF8FFFE0006000AFFF30003000C000400050001
00040005FFFBFFF900000005000600000008FFFC0006FFFDFFFCFFFEFFFBFFFCFFFBFFFE000A0010FFFA000B000600050007000C00080016FFF700070006000E000A0002FFFDFFF60002FFFE0007FFFB000FFFFD000000020002000B000A0003FFF4FFFF000600030003FFF9FFFC0003FFFF000B0001FFFFFFF8FFFF00000009
00060007000600040008FFFC0003000B000000030007FFFC0003FFFF000300070003FFFDFFFFFFFEFFFAFFFBFFFE000C0000000A00010012FFFF0003000500010003000F00030002FFFB000500020009FFFF0007FFFDFFF90001FFFEFFFC000800080005000700070001FFFF0016000D0003000A000A0006FFFDFFFFFFF6FFFC
000A0003000A0007FFFEFFF90009FFFE000000060002FFF8FFFD0007FFFD0003FFFFFFFDFFFB000400020001000B000100040007000E0005FFF8000700040006000D0001FFF9FFFD0005000AFFFE0009000D000700040000FFFE0001000100000008000DFFF9FFFFFFFE00080008FFFC000700010001FFFD000BFFFDFFF9FFFE
FFFEFFFAFFF60000FFFF000000000000FFEDFFF9FFEEFFFFFFEFFFFDFFF900060001FFFDFFF4FFFFFFFE0000FFF70002FFF7FFFD000B0000FFFE0002FFFEFFF40003FFF9000EFFEF000C000100030008FFFF00070004FFFE0004FFFAFFFEFFFB0002FFF3FFF5FFFA0008000A0009FFF90000FFFB0000FFF3FFFDFFFAFFF40004
FFE8000FFFFFFFF9FFEC000600020003FFF9FFFBFFFC000DFFFF001000040003FFF900120005000C0005FFF8FFFEFFF300020009FFF600130008FFFEFFFEFFFE0004FFFCFFFEFFF300040005FFFA0005FFF700100000FFF700010001FFFFFFFD0003FFFA0009000400020015FFFAFFF900080004FFF9000A000400040001FFFC
FFFD000FFFF6FFF4FFF700040007FFFAFFFBFFF400070002FFFBFFFEFFFDFFEAFFFFFFF600030004000000080008FFF90007FFFF0005001600000001000C000A0002FFFDFFF4FFF90006FFF7FFFCFFF8FFFCFFF6FFFF0009FFFA000B00080000FFF6FFF30007000AFFFEFFF3FFF3FFFE00080008FFFDFFFF00010008FFFC000E
0002000400060001FFF9FFFCFFF50008FFF7FFF7000A0001FFFCFFFE0004FFF90002FFFDFFFDFFF60001FFF3FFFA0005FFFEFFFFFFF6000B000400040007FFFE00010008000100060005FFFFFFFC00020008FFFA0002000000060002000100070002FFFEFFFB000D0001FFFE00050008000600030003FFFDFFFE0005FFF7FFFD
0005FFF7000100020001FFF8FFFC0009FFF80009000AFFF5FFFC00060000FFFD0003FFFBFFF60005FFFE00050008FFFC0000000200040007FFFEFFFE0001FFFD0004FFFFFFFD0004000E0006000100000009000700000005FFFF00080001FFFF000E000000060002000000100006FFFF00040004000600000000FFFCFFFD0008
00010002FFF5000100070003FFFE0001FFFF0004FFF2FFFC0004000CFFFC0009FFFDFFFAFFF8FFF300010009FFF30013FFFFFFFB00120001FFEAFFF90001FFF4000BFFF80017FFF2000C00070001000B000A000AFFFD00070016FFECFFEBFFFC0002FFF5FFEB0000000A0004001BFFF8FFFAFFFC0004FFEF0000FFF800070013
FFFA00060006FFF7FFF9FFFAFFFE0006FFFF0006FFF9000E0001000A0006FFFDFFF900080007FFFF0006FFF3FFFBFFF0FFF50003FFFA00080000FFFCFFFEFFF10003FFFAFFFEFFF600000008FFFCFFFC00030008FFF6FFF70004FFF5FFF7FFFDFFFFFFFAFFF9000000020019FFF4FFEF000A0001FFFBFFFB0001FFF80005FFED
00010008FFF7FFF1FFF1FFFF0007FFFE0000FFF7000000020002FFFAFFFEFFFBFFFA000300090005000400120002FFF80005FFFE000B000FFFEDFFFE00090009FFF9FFFE0000FFFC0005FFFD0005FFFFFFF9FFF7000400060002000F000C0005FFF3FFF60001FFF70001FFF8FFF5FFF6FFFE000AFFF2FFF9FFF50000FFFC000C
000400090006FFFBFFFCFFFDFFF600040005FFF900060004FFFDFFFB000900000003FFF8FFFC00010001FFF40000001400070003FFFD0004FFF80000FFFDFFFF0000000B00050001FFFEFFFD0003FFF90000FFF2FFFD00030003FFFB0000000C0000FFF8FFFB000A0001FFFE000A00070005FFFCFFFDFFFAFFFE0006FFF70000
0007FFFB0000FFFD000CFFF40002000D000600070000FFF90002000BFFF800020000FFF2FFFC000AFFFF000A0006000D000700060006FFFDFFFD0003FFFF0002000400020000000100020010000500020005000A0001FFFFFFFD0003FFFF0006000500000003000800010004000D0006000500020009FFF9FFFFFFFDFFFF0003
FFF00002FFF0FFF8FFFB0000FFF700010002FFFDFFFD0005FFEF0004FFFFFFFEFFF2FFFFFFF9FFFAFFFEFFFF00020005FFFD0000FFFBFFFBFFF80002FFFFFFF6FFFEFFF40002FFF9FFFBFFFBFFF300000003FFFCFFFFFFFCFFF40014000FFFF3FFF9FFFBFFFEFFFAFFFF0009FFFDFFFE0004FFFEFFFCFFFFFFF2FFFFFFF4FFF9
FFFEFFFEFFF0FFF0FFF4FFF3FFF100050007FFEFFFFFFFFAFFF10000FFFEFFF4FFF5FFF4FFFFFFF30008FFFD000100040001FFF10002FFF3FFEE00000009FFFBFFFFFFF2FFFBFFFBFFFFFFF9FFF1FFF1FFFFFFF0FFFAFFF7FFFF000C0003FFFAFFEFFFEFFFF6FFFC0001FFF5FFF800030004FFF9FFFCFFF7FFEF0002FFF0FFFF
0001FFFDFFF2FFF2FFF7FFF5FFF200010008FFF5FFFC0001FFFCFFF9FFFDFFFCFFF6FFF7FFFFFFF00007FFF90000FFFF0004FFFD0003FFF4FFEEFFFB0005FFF90004FFF30001FFF9FFFEFFF6FFFEFFF90007FFFBFFF9FFF5FFFE0000FFFCFFFDFFF2FFF3FFF700010006FFF90002FFFE0005FFF3FFFDFFF5FFF2FFF6FFF3FFFF
FFFFFFFEFFFBFFF4FFF9FFFFFFFBFFFAFFFF0003FFFE0004FFF9FFFD000500070001FFFE0000FFFB0007FFF5FFF4FFFBFFFC00010001FFF3FFFBFFFC0002FFFBFFFFFFF90006FFFCFFFAFFFC0006FFFEFFFDFFFF000000040002FFFBFFFEFFF7FFFAFFFCFFF8FFF80008FFF9FFFF00090002FFF3FFFBFFFBFFFEFFFFFFFEFFFB
FFFDFFFEFFF8FFF5FFF9FFF8FFFB00030009FFFCFFFD0002FFFBFFFE0004FFFDFFFEFFFC000100020002FFF700000002FFFEFFFB0001FFF800020000FFFCFFFE0001FFFEFFFEFFFFFFFDFFF40006FFFCFFFCFFFCFFFE0002000AFFFCFFFF0001FFFDFFFEFFFFFFFDFFFAFFFD00010007FFFFFFF8FFF40003FFFEFFFC00030003
FFF9FFFAFFFB0000FFFC0002FFFAFFFF00050002FFFF0000FFFC000C0001FFFEFFF100030002FFFCFFF8FFFA0001FFFCFFF40001FFF7FFFF000200060005FFFAFFFAFFF1FFF6FFFDFFFBFFF9FFF70000FFF900020004FFFFFFFF00090007FFF5FFFA00000004FFFE00020007FFF90002FFFE000700020003FFFE00030006FFFB
0000FFFDFFF900050001FFF800000000FFFBFFFCFFFFFFF7FFFDFFFCFFFEFFFC0007FFF6000BFFFAFFF4FFFDFFF90000FFFFFFFF0008FFFBFFF800030004FFFDFFFF0005FFF300070000FFF2FFF5FFFDFFFBFFF300010002FFFD000200010000FFFB00040000FFF8000BFFF6FFF8FFFA0000FFFAFFFB0000FFF50006FFFC0000
0006FFF3000300060006FFF60003FFF70002FFFFFFFBFFF2FFFBFFFC000000070005FFF5000BFFFDFFF8FFF7FFFEFFFF0009FFF60000FFF5FFF9FFF9FFFFFFFF0003FFF8FFFA00000002FFF2FFFB0004FFFDFFFC0001FFF9FFFFFFFBFFF8FFF9FFFD0002FFFCFFFB0009FFFEFFFBFFFBFFFCFFFC0000FFF7FFFD0001FFF9FFFB
FFF9FFF9FFF200080003FFFD0001FFFB00060001FFFAFFFEFFFB0002FFFE00060003FFFB000BFFFE0001FFFAFFFA00000001FFF60008FFF9FFFBFFF50002FFF90005FFF50000FFFEFFFBFFF50003FFFDFFFBFFF5FFFCFFFC00090002FFF8FFF8FFFAFFFCFFFB00010008FFF8FFFEFFFFFFFAFFF6FFFCFFFD0003FFFFFFF50001
FFF6FFF6FFFEFFFCFFFBFFFD0003FFFF0009FFF9FFF80002FFFFFFFC0002FFFE0000FFFD0002FFFB0002FFFFFFFCFFF70002FFFC0009FFF5FFFD00020001FFF9FFFDFFF900080002FFFAFFF2000AFFF9FFFAFFFFFFFCFFFB0001FFFEFFFB00000001FFFAFFF800010005FFF2FFFDFFFF0003FFF8FFFBFFFD000AFFFBFFFA0001
FFF9FFFFFFFB000000000005FFFC0000000D00030003FFFC00040004FFFDFFFE0001FFFC00030002FFF7FFFCFFFEFFF9FFF30006FFF30004FFFC00040003FFF70004FFF40000FFFD0001FFFBFFFD0002FFFD00050005FFFBFFFF00060005FFFAFFF7FFFF000DFFFAFFFA0002FFF9FFFA0002000400040002FFFB0005FFF8FFF6
FFFEFFFB000500040001FFF5FFFAFFF9FFFEFFF9FFFAFFF7FFFDFFF80002FFF40006FFF4000C0000FFF50000FFF7FFFCFFFF000300050004FFF90001FFF9FFFCFFFB0007FFF90001FFFFFFF5FFFDFFFEFFFEFFF0FFFF000500050002FFFBFFFAFFFC0010FFFBFFFD0007FFFDFFFBFFF5FFFFFFFDFFFF0000FFF9000400000003
0001FFF400110000FFFDFFF9FFFCFFFBFFFF0000FFFEFFF3FFFEFFFFFFF8FFFB0003FFF90004FFFB0001FFFEFFFAFFFD00010000FFFBFFF6FFFA00000003FFFAFFFD0005000100080001FFF8FFF90002FFFCFFFD0002FFF9FFFE0004FFF600020003000DFFFAFFFD0007FFF9FFFBFFF8FFFCFFFEFFFFFFFA00000000FFFDFFFE
0000FFFB0004FFFCFFFFFFFA0000FFFF00060006FFF90000FFFEFFFAFFF800070001FFFF000BFFFEFFFDFFF8FFF7FFFEFFF8FFFC000AFFF8FFFDFFFFFFFFFFFC0003FFFD0005FFFE0000FFFE0004FFFEFFFBFFF8000000030002FFFDFFFAFFFCFFFE0002FFFCFFFE0005FFF9FFFA0001FFFFFFFB000300010009FFFAFFFB0004
FFFEFFFFFFFF00000005FFFB0001FFFF0005FFFDFFF6FFFD0001FFFFFFFE00050001FFFE0003000000070006FFFF0003000200010003FFFA00000002FFFAFFFDFFF8FFFE00070006FFFEFFF10006FFF8FFFBFFF6FFFBFFFA0002FFFDFFFFFFFE0004FFFF00010001FFFEFFF2FFFF0000FFFFFFFEFFFF000900020004FFFE0001
FFF9FFFCFFF7FFFC0002FFFDFFF20007000400020005FFFE00070004FFF7FFFEFFFA000400010009FFF5FFFBFFFFFFFFFFF800050007000EFFFCFFFCFFF8FFFC000AFFE90000FFF1FFFD0007FFF600010009000F0000FFF6FFFDFFFF000AFFF2000300030001FFF9FFFE000D000AFFF8FFFC00020009FFF900040007FFFAFFF7
FFFDFFFAFFFDFFFEFFF9FFF8FFFAFFFBFFFEFFF8FFF8FFFEFFFEFFFA0006FFEFFFFFFFF900020008FFFD0004FFFFFFFFFFFE00040009000CFFF60003FFFEFFF4FFFDFFFCFFF100000004FFF0FFF7FFF90009FFFA0006FFF40000FFFBFFFDFFFEFFFA000E0004FFFF0006FFF7FFF6FFF6FFFC0005FFFA0004FFFD0000FFF6FFFC
FFFCFFFE00020002FFFC0000FFF80001FFFDFFFC0003FFFD00020001FFFEFFFBFFFBFFF8FFFEFFF70000FFF8FFF900010005FFFBFFFBFFF6FFFA0002FFFB0001FFF90003FFFD00060001FFF5FFF6FFFEFFF500000000FFF60009000000020000FFF700010004FFFE0002FFFCFFFAFFFD0006000900010000FFFC0006FFFC0000
FFFFFFFDFFF6FFFDFFFD0003FFFFFFFE0000FFFBFFF9FFF5FFFCFFFEFFFDFFFBFFFAFFF80004FFFA0004FFFBFFF8FFFDFFFEFFFCFFFEFFEE00040002000300040002FFFBFFF5FFF6FFFDFFFEFFFCFFF2FFFCFFFB00040005000100000003FFF9FFF80009FFFEFFFEFFFFFFFFFFF1FFFBFFFDFFF8FFFEFFFF0002FFFD00010003
0004FFFB0000FFFFFFFAFFFF0001000100080000000100000003FFFB0001FFFA0000FFF50004FFF8000700010001FFFEFFFE00000002FFFE000500070002FFFFFFFB0001FFFE0000FFFEFFF90002FFF4FFFDFFFAFFFCFFFF000700000002FFFAFFFC00000001FFFDFFFBFFF7FFF300050005FFFEFFF8000B0000FFFFFFFD0006
FFF7FFF6FFFAFFFC0007FFFCFFF70007000F0003FFFDFFFC000A0010FFFA0000FFF9FFFD0008000FFFF3FFFC0000FFFEFFF3000A00030008FFEFFFFAFFF7FFFD0012FFFA0004FFEFFFF8000DFFF90002000E000BFFFCFFF90000FFF3FFFCFFF30005FFFB0003FFF7FFFF00030009FFF5FFF700030005FFFC000500090005FFF7
FFF9FFFB0006FFF9FFF7FFFAFFF4FFFC00010000FFFBFFFEFFFEFFF40003FFF70001FFFD0005FFFFFFF9FFFDFFF9FFF8FFF500060009000CFFFBFFFDFFFDFFF70009FFFFFFFE00020000FFFFFFFBFFF5000AFFFCFFFFFFF700080000FFFF0007FFF400050004FFFB00050003FFF9FFF400020003FFFF0002FFFFFFFCFFF9FFF6
FFF80001000CFFFEFFFEFFFCFFF9000DFFFEFFF60008FFFF0000000300050004FFFCFFFBFFFD0000FFF7FFFCFFFBFFFB0005FFFEFFF4FFFFFFF6FFFBFFFDFFF8FFF70005FFFA0006FFFFFFFCFFFA0008FFF7FFFFFFFDFFF30006000300050006FFFFFFF70009FFFC0005FFFDFFFFFFF800050005000BFFFEFFFF0005FFFFFFFF
FFFDFFF4FFFD0002FFFD0001FFFEFFF8FFFFFFF70005FFF900010008FFFB0001FFFC0001FFFFFFF00002FFFDFFFEFFFAFFFBFFF70006FFF3FFFCFFFC000100000005FFFAFFFDFFFBFFFAFFFBFFFBFFF7FFFD00000002FFFB0001FFF9FFFBFFFFFFFA00040003FFF900060002FFFA0001FFFEFFF2FFFEFFFCFFFF0004FFFDFFFF
FFF2FFFEFFF8FFFBFFFBFFFAFFFDFFFE0000FFFEFFFC000000000001FFFBFFFFFFFEFFFD0003FFFAFFFF0009FFF8FFFFFFFE00040003FFFCFFF3FFFCFFFAFFFC0003FFFD0004FFFC0000FFF3FFFCFFFCFFF8FFF6FFFBFFF50002FFFB00050003FFF9FFF90007FFFBFFFEFFF2FFF700050003FFFE0000FFFF00050007FFF8FFFC
0003FFF70006000200090002FFFA0006000C0002000BFFF800020010FFFBFFFFFFF8FFFA00100005FFFAFFFC00010007FFFC000800000008FFF6FFFCFFF9000600130000FFFDFFF3FFF9000AFFFE0000000E000EFFFCFFF9FFFBFFFCFFF6FFFF0008000300030000FFFE00010007FFFDFFF6000E000FFFF9000500070003FFFC
FFFAFFFB000BFFFA000AFFFDFFFA000100020000FFF8FFF80000FFF7FFFD00030002FFFF000F0007FFFF0006000200060001000E00090008FFF8FFF7FFF9FFFF00060009FFF60008FFF90003FFFEFFF30013FFFE0004FFFC0006FFFE0003000000000010000200030002FFFAFFFFFFF9FFFD00090002FFFF0003000400010002
000200030009FFFD0012FFFDFFFC000C000200010009FFFA0001000300030006FFFFFFF800010003FFF90004FFF8FFFF00080003FFF6FFFF00020003FFFD0008FFFF000900020009FFFD0001FFF80005FFF80009FFFEFFF80007FFFE000A000200080002000A00080004FFFF0005000100010007000900080007000400010004
FFFC0000FFFE00020001FFFF0005FFFF000600000005FFFAFFF40002FFFD0008FFFB00010002FFF7000300030002FFFBFFFCFFFC0003FFF3FFFFFFF8FFFB0002000B0002FFFFFFFDFFFAFFFC000200000005000700020005000000030001FFFD000500060003FFF90007FFFBFFF90009FFFEFFF40000FFFE0007FFFAFFFE0003
FFFAFFFE0002FFFD0004FFFDFFFB00000002FFFD0000FFFE00010000FFFC00020001FFFC00040000FFFE0004FFFBFFFBFFF90003FFFE0003FFFB0003FFFB00020002FFFB000200010002FFF7000AFFFEFFFC00010001FFFCFFFF0005FFFE0002000100000003FFFD0002FFF5FFFF000400000005000100040004000500070003
0003FFFB00010008000B00010003000700140004000EFFFF00110007FFFCFFFDFFFE0007000D0009FFFBFFFDFFFF000AFFFE000BFFFD000B0000FFF9FFF300070015FFFEFFFC0000FFF5000DFFFB0006000D000BFFFAFFFEFFF8FFFE000200000006FFFF000CFFFFFFF800060007FFFAFFF6001100150001000C0007FFFEFFF8
0008FFF9000D000B00100001FFFB0006000100000008FFFF0000FFF50006FFFA0002FFFF000C0011FFFA0007000300030000001000080008FFFAFFF8FFF7FFFE000A0004FFFC000AFFF70005FFF8FFF10016FFFA0004FFFFFFF9FFFB0009000700040011000200030006FFFC0001FFF9FFFC000C000CFFFDFFFF0008FFF9FFFC
FFFE000A000700090012FFF7FFF6000D000CFFFF0006FFFB0004000400050011000DFFF60004000D00000001FFFD000900040008FFF9FFFD00020005FFF50002FFFE000A00080002FFF90004FFF90002000100060001FFFAFFFC00060005000500040007000800070001FFFF0005FFFB0005000B001300050003000900020009
0002FFF9FFFF000B0013FFFC00020002000CFFFD0009FFF4FFFC0000FFFA0006FFFEFFFD0007FFFAFFFD000BFFFF0003000100040009FFFFFFFBFFFCFFFB00090009000000010002FFF700030002FFFE000E0002FFFFFFF7000200000001FFFE00050006000100060002FFFD00000008FFF7FFFA000A000600040003FFFF0006
FFFF0006000600050009FFFCFFFF0004000D00080002FFF9FFFB00020001FFFE000AFFFF0009000800040004FFFD0001FFFB0003FFFE0004FFFC0001FFFD000400040003FFF90009FFFBFFFD0001FFF700020000FFFEFFFAFFFF0006FFFD000BFFFF000900080001FFFDFFFC0000000400010003000B00050004000800020002
0007FFFB0002000800140002FFFE000A000D00140001FFFE0012000CFFF70003000000050006000BFFFD0002FFFD0007FFF4000B000E000FFFFDFFF4FFEB000A001700090009FFF6FFEA0017000000050014000FFFF8FFFEFFF8FFF9FFFC0005000B00070004FFF9FFF700000004FFFBFFEF000C0017000A00100004000FFFF4
FFFD00030011FFFC000B0002000100020004000D000300090007FFF4000A0000000700010006000EFFFA000B0004FFFDFFF80013000900070004FFF6FFF60001000B0011FFFE0014FFFA00000002FFEF0014000DFFFFFFF7FFF7FFFE0003000CFFFF00140003000C00000006FFFA0007FFF6000C00070009000000000002FFF3
000800060012000D001CFFF6FFFB0007000600100004FFFC00060000000B000400030002FFFE000AFFF4000FFFF7000E00000010FFF200050000FFFDFFF1000C000000110002000F00010001FFF90006FFFA000E0001FFFEFFFBFFFE000B001100020015000F000BFFFBFFFD000A0003FFFD0012001600100009000200060009
0006FFF8000D00070006FFFB00010000000800060007FFF90004FFFF000100040007000200040005FFFA00110000000200000000FFFBFFF90001FFF7FFF9000A000D000BFFFB0010FFFB00010000FFF6000C00070004FFFEFFF5FFF80003000AFFFD000D00030003FFFEFFFB00000004FFFBFFFF00050009000B00020001000B
0001FFF80006000B0007FFFF0003000700050003000800000000FFFCFFFEFFFF0002FFFB00030009FFFF000B00020003FFFF0006FFF8FFFD0001FFFCFFF7000E00020004FFFF0001FFF800010002FFF7FFFCFFFD0001FFF3FFFEFFFF00040008FFFD0011000A0007FFF7FFF800040006FFFC0002000C000A0006000800080000
FFFFFFFA00010001FFF9FFFEFFFEFFFBFFFB0002FFFF00000003FFFAFFFEFFFEFFFCFFFCFFFF0000000100000003FFFAFFFB00000000FFFA0000FFFDFFFAFFFDFFFAFFFDFFFA0001FFFEFFFDFFFEFFFC00040003FFF9FFFAFFFD00000003FFFEFFF9FFFDFFFBFFFF0001FFFDFFF9FFFDFFFCFFFA0003FFFF000000000003FFFD
000300030002FFFBFFFAFFFBFFFE0003FFFF0002FFFB00000004FFFE000500040001FFFA00010002FFFB00000001FFFF0002FFFEFFFAFFFFFFFCFFFEFFFCFFFFFFFF0001FFFC000100000001FFFFFFFC000300020000FFFDFFFDFFFEFFFEFFFC0000FFFA0001FFFEFFFF00010002000300010001FFFFFFFDFFFA0002FFFB0001
00010000FFFE0002FFFA000400040002FFFCFFFE0002FFFCFFFC00030000FFFF0000FFFD0004FFF90000FFFDFFFD0003FFFDFFFBFFFF0000FFFFFFFFFFFEFFFBFFFF0002FFFB0000FFF90002FFFCFFFE00020001FFFBFFFE0003FFFBFFFAFFFAFFFFFFFE0000000300000000FFFA000300000002000300030005FFFE0002FFFB
FFFE000200010000FFFB000300010003FFFE0001FFFF0000FFFDFFFE0003FFFC00000003FFFAFFFA0005FFFF0001FFFD0003FFFC0001000300010003000100020002FFFFFFFFFFFE0000FFFFFFFE00030001FFFB0003FFFD0003FFFF00020001FFFBFFFFFFFFFFFB0001000200000004FFFFFFFAFFFF00000003000300010000
FFFDFFFDFFFD0001FFFC000200010003FFFDFFFDFFFBFFFAFFFAFFFCFFFFFFFB000000030001FFFAFFFB0003FFFAFFFAFFFFFFFC0000FFFE00020002000000030001FFFCFFFFFFFEFFFDFFFEFFFB0003FFFDFFFCFFFF0000FFFB0001FFFBFFFCFFFAFFFD00020002FFFCFFFE0003FFFDFFFC000200010001FFFDFFFEFFFF0000
0000FFFCFFFFFFFDFFFEFFFCFFFDFFFF0000FFFB000000000002FFFEFFFEFFFEFFFF00030004FFFBFFFAFFFFFFFD00040002FFFE0005FFFEFFFBFFFEFFFD0003000300010002FFFCFFFE00020001FFFC0003FFFB00040003FFFBFFFDFFFF0001FFFE00030002FFFAFFFEFFFCFFFF00030000FFFC0001FFFDFFFD0002FFFC0001
0001FFFBFFFAFFFBFFFCFFFE0004FFFFFFFAFFFAFFFCFFFFFFFE0004FFFBFFFFFFFBFFFFFFFFFFFFFFFC0001FFFAFFFF000000020000FFFF0000FFFCFFFBFFFCFFFC0003FFFDFFF90003FFF9FFFFFFFB00010003FFFC0002FFFE0003FFFC000100020003FFFE0003FFFE00000004FFFFFFFA0003000200000003FFFC00020000
FFFDFFFBFFF90003FFFFFFFD00010003FFFEFFFE0002000100010000FFFB0003FFFFFFFD000000030001FFFFFFFE0002FFFC0000FFFB0000FFFC0003FFFAFFFB00000000FFFFFFFAFFFC0003000100010002FFFC00050003FFFFFFFBFFFAFFFEFFFAFFFCFFFEFFFFFFFE0001FFFCFFFBFFFB0001FFFF0003FFFEFFFAFFFFFFFC
0002FFFB0003FFFEFFFCFFFCFFFD00000001FFFEFFFFFFFCFFFDFFFCFFFAFFFC0002FFFF000300020000FFFF0000FFFA0002FFFA000300020003000100000002FFFDFFFA0000FFFDFFFBFFFFFFFF0001FFFA0000FFFEFFFA000200030000FFFEFFFEFFFD00010000000300050003000200000003FFFD00010002000000020003
FFFDFFFAFFFB0000FFFC0000FFFA0001FFFCFFFC00020000000300040003FFFCFFFF00040002FFFF0004FFFDFFFEFFFEFFFF0001FFFC0005FFFDFFFF0001FFFCFFFB00010000FFFCFFFBFFFD0000FFFCFFFBFFFC00040002FFFAFFFE00000000FFFA0003FFFCFFFDFFFEFFFBFFFDFFFF0002000100010001FFFCFFFC00030003
0000FFFF0003FFFDFFFCFFFF00010000FFFFFFFAFFFBFFFF000000010003FFF9000200010000FFFBFFFDFFFEFFFA0001FFFFFFFD0001000200010001FFFF00020001FFFDFFF9FFFAFFFDFFFBFFFAFFFF00010003FFFFFFFAFFFBFFFB00030000000000000002FFFEFFFDFFFFFFFAFFFAFFFFFFFFFFFF0000FFFEFFFAFFFFFFFC
FFFA00000004FFFAFFFB0003FFFAFFFCFFFA00030002FFFA0003FFFF000300020004FFFDFFFE0000FFF900020005FFFF0001FFFBFFFDFFFFFFFDFFFFFFFB00010000FFFD00010001FFFD00020004FFFDFFFFFFFE0001FFFEFFFF0002FFFA0000FFFEFFFBFFFFFFFBFFFF00000000FFFFFFFB0003FFFBFFFFFFFFFFFD00010000
FFFDFFFEFFF9FFFDFFFC00030000FFFDFFFCFFFFFFFDFFFFFFFF0002FFFAFFFCFFFD00050005000100020001FFFAFFFC00000003FFFA00010003FFFAFFFCFFFB000100030003FFFBFFFCFFFFFFFF00010000FFFDFFFBFFFDFFFCFFFD00040000FFFDFFFC0002FFFDFFFAFFFCFFFCFFFBFFFDFFFF00000002000300000004FFFE
FFFCFFFAFFFA0000FFFAFFFCFFFD00020002FFFF0002000000030000FFFAFFFD0002FFFCFFFBFFFD000200020000FFFFFFFAFFFF000100030001FFFFFFFBFFFF0003FFFBFFFAFFFA0003FFFD00030003FFFFFFFEFFFAFFFFFFFDFFFCFFFD0002FFFE00010004FFFD0000000200050001FFFCFFFDFFFFFFFCFFFF00010003FFFD
000200010001FFFDFFFF0004FFFE0003FFFE0001FFFFFFFB00020003FFFFFFFEFFFA0000FFFEFFFB0003FFFF0003FFFE0003FFFFFFFC000300030001FFFE00030003FFFBFFFBFFFBFFFB00020002FFFFFFFFFFFFFFFFFFFEFFFDFFFAFFFCFFFFFFFDFFFFFFFE00030001FFFE0000FFFAFFFC0000FFFDFFFD0002FFFC0000FFFE
FFFD0001FFFD00000000FFFBFFFA0000FFFFFFFEFFFAFFFCFFFFFFFA000100020000FFFDFFFAFFFDFFFC000200000001FFFA0000FFFA0001FFFD0003FFFCFFFC000300050000FFFFFFFCFFFA000000020001FFFCFFFE0002FFFDFFFE00030002FFFDFFFF000300050004FFFEFFFBFFFCFFF9FFFBFFFD00010003FFFFFFFEFFFD
FFFD00020000FFFFFFFDFFFC00000001FFFDFFFBFFFA00020000FFFD0003FFFA0000FFFB00010000FFFB00030002FFFE0003FFFFFFFC000200030003FFFE0002000300030003FFFFFFFFFFFC0001000200040000000300040000FFFC0003FFFE0002FFFFFFFAFFFFFFFDFFFF00020002FFFEFFFCFFFAFFFFFFFEFFFD00030000
0001FFFCFFFB0003FFFE0002FFFDFFFCFFFBFFFDFFFC00020000FFFFFFFFFFFEFFFD0001000200020000000200000003FFFF0002FFFCFFFD000100030001FFFDFFFA0001FFFEFFFD0002FFFDFFFBFFFF0001FFFEFFFA0000FFFFFFFD0000FFFF000400000001FFFCFFFB0000FFFFFFFC000100000003FFFEFFFA0001FFFC0001
FFFF0001FFFC0002FFFF0002FFFB0003FFFF0002FFFA00040000FFFC00030000FFFCFFFF00020000FFFF0003FFFF0000FFFAFFFBFFFCFFFAFFFF000300010002FFF90003FFFE0002FFFFFFFAFFFC0001FFFF0000FFFC0003000300010000FFFC0000FFFEFFFBFFFE0000FFFE00000003FFFB000300010002FFFFFFFEFFFAFFFF
0004FFFE00000003FFF9FFFC000200000003000200040002FFFB0001000100030003FFFD0005000000020002FFFCFFFF0003FFFAFFFFFFFD00020003FFFFFFFDFFFAFFFB0000FFFA0000FFFB0001FFFF0001FFFEFFFBFFFE000200000002000100010000FFFDFFFDFFFCFFFB000000030000FFFEFFFEFFFEFFFA00000002FFFE
00040000FFFD0002FFFDFFFDFFFD0000FFFEFFF9FFFDFFFAFFFCFFFCFFFEFFFFFFFF0003FFFB0000FFFDFFFEFFFF0001FFFEFFFDFFFFFFFEFFFE000300010003FFFA0000FFFE00020005000100000002FFFB0001FFFCFFFB0000FFFF0000FFFA0000FFFB000400000001FFFEFFFFFFFAFFFDFFFEFFFCFFFA000200010001FFFD
0003FFFAFFFB0000FFFFFFFAFFFBFFFBFFFBFFFA0003FFFBFFFDFFFB000100020002FFFD00000003FFFC0000FFFD0000FFFDFFFDFFFFFFFC0003FFFF0004FFFF0002FFFCFFFBFFFBFFFE00000000FFFFFFFDFFFD0002FFFEFFFFFFFEFFFC0002FFFA0002FFFEFFFDFFFEFFFFFFFF0002000000010003FFFCFFFAFFFFFFFD0004
FFFD00010001000200020000FFFB0002FFFB0001FFFF0003FFFFFFFB00030002FFFC000300010003FFFD0000FFFFFFFCFFFCFFFEFFFB0002FFFEFFFAFFFC0002FFFB00020004FFFFFFFDFFFAFFFBFFFF00000000FFFF0001FFFCFFFDFFFAFFFC00020002FFFF0002000000030000FFFB000200000003FFFA00000002FFFB0003
FFFBFFF9FFFBFFFFFFFCFFFB0001FFFE0002FFFEFFFBFFFC00010003FFFEFFFC0002FFFB00030000FFFDFFFBFFFFFFFBFFFCFFFEFFFCFFFD00020001FFFDFFFF000200020005FFFEFFFDFFFB0000FFFDFFFDFFFDFFFEFFFB0003FFFBFFFBFFFB0000FFFB000300030003FFFF0002FFFCFFFDFFFEFFFBFFFBFFFEFFFDFFFC0000
0000FFFD000000030002FFFCFFFF0000FFFA00010002FFFB0003FFFBFFFDFFFEFFFFFFFDFFFDFFFEFFFC0000FFFF0000FFFEFFFCFFFCFFFDFFFA0001FFFDFFFE0003FFFEFFFAFFFAFFFA000100020002FFFE00030004FFFDFFFEFFFCFFFCFFFD00010002FFFAFFFE00000000FFFEFFFFFFFF0002FFFFFFFDFFFCFFFCFFFCFFFD
0002FFFEFFFC0003FFFA00000003FFFB0001FFFFFFFD0002FFFC0001FFFDFFFEFFFBFFFCFFFBFFFCFFFF0000FFFEFFFD0002000300010003FFFDFFFE0004FFFFFFFAFFFEFFFC00010000FFFAFFFAFFFEFFFCFFFAFFFEFFFE0001FFFEFFFC0003FFFC0002FFFC0001FFFDFFFE00010001FFFDFFFB00020001000100010001FFFF
0001FFFEFFFC00020001FFFCFFFAFFFBFFFEFFFDFFFEFFFD0002FFFE0004000000050000FFFA0000FFFA00000003FFFA0003FFFC0000FFFE0002FFFBFFFBFFFC0004FFFB0005FFFF000100030002FFFFFFFF000000020002FFFFFFFFFFFD0004FFFA00030002000000030003FFF90000FFFE00020003FFFC000000020003FFFF
FFFAFFFC0002FFFFFFFE00010001000200020001FFFB0000FFFB00010002FFFA0002FFFAFFFEFFFA0002FFFEFFF90002FFFF00030005FFFF00020002FFFEFFFFFFFC000200000001FFFAFFFEFFFCFFFD0000FFFFFFFAFFFAFFFBFFFAFFFC0000FFFDFFFBFFFF000000000004FFFDFFFDFFFEFFFCFFFDFFFF00000002FFFCFFFE
FFFDFFFEFFFDFFFA0004FFFEFFFD0003FFFB00020001FFFD0001FFFD0000FFFCFFFF0001FFFDFFFCFFFBFFFDFFFFFFFE00010001FFFFFFFEFFFC0001FFFD00030000FFFE0003FFFB0003FFFFFFFCFFFD000000020002FFFFFFFD0000FFFBFFFC0003FFFDFFFAFFFFFFFF0003FFFBFFFCFFFE0000000000000002FFFFFFFDFFFF
0000FFFCFFFDFFFCFFFFFFFCFFFB0002FFFCFFFD00010000FFFD00000002FFFF00020000FFFDFFFE0003FFFEFFFAFFFA0003FFFAFFFF00020003FFFCFFFEFFFEFFFF00030004FFFD0002FFFC0002FFFF000100000000FFFF0004FFFCFFFEFFFA0001FFFC0001FFF90000FFFBFFFBFFFEFFFEFFFD0001FFFC00050002FFFDFFFA
FFFEFFFE0003FFFBFFFBFFFDFFFCFFFC0001FFFF00010000FFFCFFFDFFFE000300030002FFFEFFFF0002FFFFFFFCFFFEFFFBFFFAFFFE00030003FFFE0005FFFFFFFBFFFBFFFEFFFA0000FFFF0003000100030002FFFCFFFB0001FFFBFFF9FFFFFFFB0003FFFDFFFFFFFEFFFBFFFCFFFEFFFEFFFCFFFDFFFF0000FFFBFFFCFFFD
0002FFFDFFFF00000005FFFCFFFC00000003FFFFFFFAFFFCFFFB0003FFFCFFFC00040002FFFEFFFE0001FFFC0000FFFEFFFA0000FFFB0000FFFBFFFF000000000003FFFD000100010003FFFAFFFF00010004FFFA000400020000FFFBFFFE0003FFFDFFFEFFFB00000002FFFFFFFCFFFBFFFF0000FFFF000200000001FFFB0002
FFFA0001FFFA000100050000FFFF0002FFFCFFFDFFFFFFFDFFFEFFFC0001FFFD0001FFFC000400000002FFFB00020003FFFAFFFD0003FFFDFFFCFFFCFFFD0000FFFAFFFBFFFC00000000FFFEFFFDFFFE00020002000100000001FFFCFFFEFFFAFFFB0003FFFAFFFCFFFF0000FFFE0003FFFCFFFF0002FFFEFFFCFFFA00020001
FFFFFFFD0000FFFEFFFBFFFA0004FFFD00010003FFFDFFFCFFFCFFFBFFFCFFFBFFFF0002FFFD00010001FFFD0000FFFEFFFD0001FFFE0005FFFAFFFDFFFFFFFEFFFB00000000FFFB0003FFFBFFFCFFFE0001FFFC0003FFFA000200030003FFFEFFFFFFFAFFFDFFFFFFFC0003FFFDFFFBFFFF00050000FFF9FFFDFFFDFFFEFFFF
FFFC00020003FFFCFFFD0003FFFE000200020000FFFFFFFC0001FFFDFFFFFFFA0000FFFD0001FFFAFFFF0002FFFBFFFA0001FFFBFFFAFFFFFFFB0004FFFBFFFEFFFCFFFC00010003FFFCFFFBFFFBFFFF0001FFFA00020000FFFBFFFB000000020003FFFBFFFCFFFFFFFEFFFB00030002FFFD0000FFFD000200040001FFFE0003
FFFAFFFBFFFBFFFAFFFD0000FFFF0002FFFE00020000FFFE0001FFFCFFFAFFFD0001FFFF0002FFFEFFFD0003FFFFFFFEFFFA0000FFFEFFFC0000FFFFFFFFFFFEFFFCFFFEFFFCFFFAFFFBFFFB0000FFFB00000000FFFFFFFE00010003FFFCFFFA0003FFFAFFFDFFFC0003FFFE000200020003FFFBFFFBFFFAFFFFFFFB00010001
FFFCFFFE0003FFFC0003FFFEFFFB00030001FFFD00010003FFFFFFFAFFFFFFFB0000FFFB0004FFFFFFFCFFFF0002FFFA0001FFFFFFFCFFFE00000001FFFC0000FFFCFFFFFFFFFFFC00010003FFFDFFFEFFFF0001FFFEFFFC0000FFFBFFFDFFFD00020000FFFCFFFD000000030000FFFA0001FFFFFFFC00030001000300000004
FFFF00000002FFFCFFFEFFFAFFFBFFF9FFFC0002FFFB00010001FFFF0001FFFEFFFD00000002FFFDFFFDFFFF00030001FFFFFFFF0000FFFB000200020001FFFD0000FFFA00030000FFFCFFFAFFFFFFFE0001FFFE0000FFFEFFFC0003FFFC0000FFFF0001FFFF0003FFFCFFFB0003FFFBFFFE000400000000FFFD00030001FFFE
FFFCFFFB0000FFFEFFFDFFFAFFFEFFFCFFFAFFFB00020002FFFDFFFA0000FFFBFFFD000000030002FFFE0001FFFAFFFEFFFDFFFE00010005FFFB0002FFFAFFFFFFFDFFFCFFFCFFFBFFFE00020003FFFDFFFDFFFA000300020003FFFC0001FFFEFFFAFFFBFFFFFFFEFFFAFFFAFFFE0000FFFE0003FFFB00000003FFFCFFFDFFFD
FFFAFFFEFFFF0000FFFE0002FFFC0001FFFA00040000FFFC000000010003000000010003000000010001000000020001FFFEFFFDFFFBFFFBFFFEFFFC000300030002FFFEFFFEFFFE0003FFFAFFFB0000FFFEFFFA00030002FFFE0001FFFDFFFEFFFCFFFBFFF90000FFFBFFFE00010003FFFE0002FFFC000500020002FFFEFFFB
0004000200040002FFFFFFFF0000000200010005FFFD00010003FFFAFFFF0002FFFBFFFB0002FFFE00060002FFFB00060003000300040000FFFEFFFDFFFAFFFD000100050001FFFA00030003FFFDFFFCFFFEFFFDFFFF0002FFFE0002FFFF0003FFFE0000FFFEFFFBFFFB00020003FFFAFFFA0003FFFB00010002000000030003
FFFBFFFDFFFD000300000003FFFE00040003FFFEFFFBFFFCFFFD0000FFFDFFFDFFFCFFFB0007000300020001000300020000FFFCFFFCFFFCFFFD0002FFFC0003000000000001FFFD000600040003FFFFFFFF0001FFFEFFFF0002FFFD0002FFFC0006FFFE00030001FFFC000100050003FFFE0001FFFDFFFDFFFDFFFD00000002
00020001000100030000000200000006FFFF0000FFFD00000004FFFDFFFE00020003FFFF00030002FFFEFFFD00010002000600020003000300000002FFFCFFFC0004FFFEFFFFFFFD0003000000030004FFFEFFFC0003FFFFFFFB00060002FFFD0003FFFCFFFB00040003FFFEFFFE0001FFFFFFFA0004FFFC0005FFFDFFFC0000
FFFE0001FFFEFFFE00030000FFFBFFFF00030002FFFA0002000000070002FFFD000100020002FFFEFFFB00060001000000040005FFFEFFFFFFFEFFFFFFFE000400050003FFFBFFFFFFFDFFFD0002FFFF0005FFFEFFFEFFFAFFFD0000FFFC00040004FFFFFFFDFFFCFFFD0000000100010000000000040003FFFC00000000FFFB
FFFE0001FFFDFFFD0004FFFFFFFBFFFCFFFB00020000FFFA0006FFFDFFFD0000FFFCFFFFFFFBFFFEFFFBFFFB00020002FFFD0001FFFB00040002FFFBFFFF00030002FFFDFFF90001FFFEFFFDFFFAFFFF00000001FFFD00000002FFFEFFFA0002FFFEFFFE00000001FFFFFFFA00000002FFFC0002FFFC0001FFFF0001FFFAFFFA
FFFEFFFFFFFBFFFFFFFB0005FFFF0002FFFA0000000000020003FFFD0003FFFF000200020000FFFA0000FFFD0003FFFBFFFE00000003FFFA0003FFFBFFFD00020003FFFAFFFF000200000000000100000002FFFFFFFDFFFBFFFF0000FFF90001FFFEFFFE0000FFFBFFFFFFFC00010003FFFAFFFDFFFCFFFE00000003FFFC0001
0003FFFE0003FFFFFFFF0002FFFB0003FFFE0006FFFDFFFB0002000300000002FFFFFFFD000500060000FFFE0006FFFFFFFE000000030001FFFE00030000FFFFFFFFFFFA000200020000FFFA000200060003FFFFFFFDFFFCFFFC0002FFFF000300040002FFFA00000000FFFF0000FFFB000000050004FFFFFFFC00050001FFFB
00000002000400050004FFFEFFFF0004FFFBFFFCFFFD0002000500050006FFFDFFFF000300060002FFFDFFFFFFFE00010000FFFDFFFD0001FFFBFFFDFFFE000600050001FFFEFFFE00040000FFFA0007000100040002FFFF00010001FFFE0003FFFF0006000100060002FFFC0003FFFE0002FFFDFFFDFFFAFFFE0007FFFC0005
0001FFFF000100020006FFFAFFFBFFFEFFFAFFFDFFFFFFFB0005FFFFFFFFFFFEFFFBFFFC00070006FFFDFFFEFFFE00030001FFFFFFFFFFF90001FFFAFFFDFFFD00060001FFFEFFFB00020006FFFC0002FFFE0002FFFA000000020003FFFD00000001FFFF000200030003FFFAFFFAFFFAFFFD00050000FFFD000200020001FFFF
FFFBFFFFFFFE00030006FFFDFFFFFFFEFFFF0000FFFD0003FFFCFFFFFFFC0001FFFBFFFBFFFDFFFC00000002FFFA000100010004FFFEFFFEFFFEFFFCFFFE00000001FFFAFFFBFFFBFFFB00020002FFFE0000FFFC00020003FFFDFFFBFFFBFFFE000100010004FFFAFFFB0002FFFE000000010006FFFDFFFE000200000001FFFD
000200030003FFFEFFFDFFFA0000FFFD000200000003FFFD0003FFFD00000003FFFC0003FFFCFFFEFFFFFFFB0000FFFA0001FFFC0003FFFD0004FFFA00030001FFFAFFFF00030003FFFF00010001FFFB0001FFFE0003FFFB0002FFFDFFFA0005FFFCFFFBFFFF00020002FFFAFFFCFFFE0002000100020003FFFB00030003FFFC
0002FFFEFFFE00010002FFFCFFFD0001FFFA0001FFFAFFFDFFFA0001FFFB0001FFFDFFFAFFFB0006FFFCFFFF0000FFFFFFFD00050004FFFBFFFFFFFFFFFDFFFD0001FFFDFFFDFFFB0000FFFA0005FFFD0000FFFCFFFF00000003FFFF0003FFFAFFFE0004FFFCFFFBFFFE00030002FFFE0000FFFFFFFA0002FFFDFFFDFFFAFFFF
FFFAFFFCFFFAFFFD0001FFFBFFFAFFFDFFFB00010001FFFEFFFAFFFF0004FFF900040001FFFD0001FFFFFFFDFFFCFFFD000200050000FFFBFFFF0002FFFDFFFDFFFE0001FFFCFFFBFFFD0003FFFDFFFC0003FFFFFFFD0003FFFCFFFE00010001FFFBFFFEFFFFFFFCFFFCFFFDFFFC00000000FFFB00060003FFFE0005FFFE0000
00030000FFFDFFFEFFFAFFFC0002FFFDFFFB0006FFFC0003FFFE00010002FFFCFFFDFFFFFFFAFFFF0003FFFDFFFDFFFA00040004FFFD0001FFFB0002FFFB0003FFFFFFFA0002FFFCFFF9FFFF00030003000200030003FFF9FFFE00000002000700060002FFFFFFFC0005FFFF000300020003FFFC000000000001FFFDFFFEFFFE
0002FFFA00000003FFFAFFFB00040001FFFC0005FFFCFFFDFFFCFFFBFFFEFFF9FFFEFFFAFFFFFFFAFFFFFFFDFFFF00030004FFFFFFFBFFFB0002FFFCFFFBFFFD00000002FFFD0000FFFCFFF900010002FFFC000200000002FFFA000200010005000200030002FFFD0002FFFA0001FFFD00050001FFFD0000FFFDFFFA0001FFFB
00020002FFFBFFFB00020001FFFFFFFBFFFD0003FFFEFFFD0000FFFAFFFDFFFB000000050003FFFC0003FFFB00020001FFFD000000020004FFFA000300020003FFFE0001FFFA000300050001FFFEFFFBFFFB0001FFFEFFFB00020003FFFB0003FFFFFFFEFFFAFFFC000100030003FFFD00020003FFFDFFFBFFFA0000FFFBFFFE
FFFB0001FFFEFFFEFFFE00020003FFFAFFFDFFFA0000FFFAFFFBFFFC0001FFFE0001000000010004FFFC0002000300020001FFFFFFFBFFFBFFFCFFFB00020001FFFE0002FFFD0001FFFDFFFEFFFCFFFD00030000FFFDFFFDFFFAFFFE0004FFFA0000FFFD0000000100060003FFFB0000FFFF00010002FFF9000300060003FFFF
FFFE00030000000200030001FFFBFFFEFFFFFFFB00030000FFFB0001FFFBFFFA0006FFFCFFFE000200000000FFFBFFFB00040005FFFA0000FFFAFFFD0004FFFEFFFD000100060001FFFFFFFDFFFFFFFC0000FFFFFFFB0001000200020006FFFD0003FFFCFFFF00040002FFFFFFFE00010000FFFA0000FFFBFFFA000400000002
FFFCFFFBFFFA0000FFFDFFFB00020005FFFD0002FFFEFFFAFFFEFFFCFFFC00000005FFFB00000006FFFBFFFA0005FFFC000400040002FFFB00010000FFFAFFFEFFFD00010001FFFAFFFE0003000000030003FFFFFFFFFFFC00010001FFFDFFFDFFFC0002FFFD0003FFFE0000FFFD0002FFFE0003FFFF0001FFFC0005FFFEFFFE
FFFB0003FFFBFFFD0003FFFEFFFD00000001FFFE000300020003FFFF0003FFFAFFFBFFF9FFFBFFFEFFFBFFFFFFFEFFFCFFFCFFFC0000FFFF0006FFFEFFFC0000FFFF00020006FFFA0000FFFFFFFCFFFBFFFAFFFFFFFDFFFAFFFB0002FFFB0002FFFB0000FFFEFFFCFFFCFFFFFFFB00020002FFFE0002000200010001FFFA0003
00060006FFFDFFFBFFFFFFFEFFFB0001FFFD00030003FFFEFFFCFFFFFFFF0001000300060001FFFFFFFE00000002FFFFFFFDFFFCFFFE0003FFFCFFFC000100000001000200060005FFFEFFFFFFFEFFFC000000010001FFFD000000010001FFFBFFFD00010000FFFAFFFE00000002FFFEFFFBFFFA0001FFFB0001FFFDFFFAFFFF
0003FFFFFFFFFFFE00020002FFFC00010002FFFFFFFCFFFBFFFC00000000FFFE0006FFFD0000FFFE0000FFFBFFFAFFFE0002FFFEFFFBFFFC0003FFFD0001FFFE000100000005FFFE0003FFFDFFFF0000FFFD0002FFFB0002FFFE00010006FFFC0003FFFEFFFDFFFFFFFD00030003000400000002FFFCFFFEFFFA00000003FFFD
FFFBFFFB0003FFFD0001FFFF00030002FFFE00000002FFFEFFFEFFFCFFFFFFFDFFFD0003000200050001FFFCFFFFFFFE00040002FFFD00000002FFFC00040002FFFF00020002FFFC0000FFFC0003FFFB0005FFFAFFFDFFFEFFFC0001FFFD0003FFFAFFFFFFFF00060001FFFAFFFBFFFD00000001FFFD0003FFF9FFFEFFF9FFFD
0003FFFC0003FFFE00060003FFFD0006FFF9FFFD0003FFFB000100030001FFFFFFFDFFFAFFFE0005FFFCFFF9FFFBFFFD00030003FFFAFFFFFFFBFFFB000100010003FFFD0003FFFB0006000200010005000300010007FFFEFFFEFFFFFFFE0003FFFCFFFBFFFB0001FFFC00040003FFFB0005FFFEFFFE0003FFFC00020003FFFF
FFFF0001FFFEFFFA000500020002000100030000FFFFFFFCFFFDFFFF0001FFFEFFFE00030002FFFC0001FFFA0000000000000003FFFBFFFC00030002000200010002FFFE000200010003FFF90001FFFB0006FFFBFFFEFFFDFFFA0000FFFBFFFDFFFBFFFCFFFCFFFEFFFFFFFBFFFE00030000FFFBFFFAFFFFFFFD0002FFFF0005
0003FFFDFFFBFFFBFFFFFFFDFFFD00000001FFFEFFFAFFFCFFFFFFFC0001FFFEFFFC00030000FFFE0002FFFF0000FFFD0001FFFFFFFD0002FFFF000100000003FFFDFFFDFFFDFFFC0000FFFBFFFBFFFD0002FFFCFFFDFFFE000000010002FFFFFFFFFFFE0006000400050003000100050005FFFAFFFDFFFFFFFFFFFC00030000
0001FFFCFFFEFFFA0003FFFCFFFE00020003FFFB0000FFFDFFFBFFFAFFFDFFFE0005FFFD0003000000030003000200020001FFFB00000000FFFAFFFB0006FFFBFFFDFFFA000000010005FFFDFFFFFFFEFFFDFFFA0001000400010002000200010002FFFF0000FFFDFFFA00050003FFFE000400000000FFFAFFFD00030003FFFF
00000003FFFD0002FFFDFFFAFFFEFFFBFFFAFFFA00000001FFFFFFFAFFFEFFFA0002FFFBFFFFFFFEFFFC0000FFFBFFFE000300030001FFFBFFFB00020006FFFFFFFFFFFDFFFD0003FFFEFFFFFFFF00020002FFFFFFFE0003FFFCFFFE00030000FFFCFFFBFFFD000300000005FFFBFFFF0006FFFD00020002FFFF0002FFFF0000
00060003FFFCFFFDFFFDFFFA00000005FFFAFFFAFFFA0003FFFFFFFEFFFA0002000400000003FFFE0002FFFAFFFEFFFFFFFEFFFEFFFFFFFA0003FFFCFFFDFFFCFFFDFFFEFFFC000000000001FFFE00060000FFFE000200020002FFFE0001FFFA0002FFFD0002FFFDFFFB00030001FFFE0001FFFBFFFEFFFAFFFA00010001FFFE
FFFEFFFEFFFAFFFF0004FFFC0005FFFCFFFBFFFFFFFC00000002FFFEFFFEFFFD0003FFFDFFFEFFFA000100030001FFFFFFFA0000FFFFFFFAFFFD0003FFFE00010001FFFB000200020003FFFAFFFE000100000004FFFE00000002FFFE00030002FFFFFFFE0002FFFA000300040001000200010002FFFA0003FFFA0000FFFA0002
FFFB0003FFFF0005FFFB00010000000200030003FFFEFFF9FFFD0002FFFA000100010002FFFDFFFE00000003FFFEFFFF00020002FFFAFFFA000300030001FFFCFFFDFFFC00060002FFFE0001FFFCFFFE0005FFFF00040000FFFFFFFDFFFDFFFFFFFDFFFC0001FFFDFFFEFFFDFFFC00010001000000020000FFFD00010003FFFB
00030000FFFEFFFA00040001FFF9FFFFFFFDFFFD00000000FFFCFFFF0001FFFE0000FFFC0001FFFEFFFEFFFAFFFEFFFCFFFEFFFCFFFCFFFCFFFBFFFD0004FFFFFFFA00020006000100010003FFFD0005FFFDFFFEFFFF0004FFFEFFFC00010001FFFFFFFBFFFD0004FFFE0004FFFF000400000001FFFCFFFA00020004FFFEFFFB
FFFDFFFB000200010001FFFE00020000FFFAFFFD0002FFFEFFFCFFFBFFFDFFFAFFFEFFFB0006FFFFFFFDFFFFFFFE0003000000030000FFFBFFFBFFFF000600010004FFFC0006FFFE000200030002FFFEFFFF000200010005FFFFFFFCFFFAFFFEFFFEFFFE000100000003FFFEFFFEFFFC0004FFFF00060000FFFC0006FFFB0000
FFFBFFFF0000FFFB0001FFFDFFFF0003FFFAFFFBFFFFFFFB0000FFFEFFFBFFFF000300000001FFFFFFFFFFFF0004FFFCFFFF00020005FFFDFFFF00020001FFFB000300030001FFFDFFFAFFFEFFFB0006000100030006FFFCFFFF0006FFFFFFFF0003000200000002FFFB0001FFFD00000002FFFEFFFCFFFFFFFD0005FFFCFFFB
0002FFFCFFFC000000010002FFFE0000FFFC00030000FFFBFFFAFFFFFFFCFFFD000500020001FFFD0002000100020002FFFE000000010001000000020003FFFEFFFCFFFB0000FFFBFFFCFFFB0004FFFBFFFE00000002FFFA0002FFFBFFFCFFFDFFFD000200010003FFFD0003FFFA00010000FFFDFFFBFFFDFFFC0006FFFAFFFC
0000FFFBFFFB000300030000FFFFFFFB000200020000FFF9FFFF0001FFFBFFFAFFFEFFFAFFFC0002FFFEFFFF0001FFFB00010000FFFFFFFFFFFB000500060003FFFA000100050003FFFCFFFEFFFD000200020000FFFBFFFCFFFB0001FFFEFFFEFFFDFFFAFFFB00030002FFFEFFFCFFFC0003FFFA00030003FFF90001FFFDFFFA
FFFA0002FFFA0003FFFBFFFF000300020003FFF90001FFFA0001FFF9FFFBFFFA0000FFFFFFFFFFFD0001FFFDFFFEFFFEFFFAFFFEFFFF0002FFFF000100010002FFFFFFFA0003FFFFFFFEFFFE00030000FFFF0002FFFDFFFF000300050003FFFBFFFBFFFBFFFD0004FFFB00040003FFFEFFFF0000FFFEFFFAFFFBFFFF00010004
0001FFFF0001FFFB00000003FFFDFFFCFFFDFFFBFFFA000100010004FFFF00020000FFFDFFFEFFFFFFF9FFFDFFFCFFFB0003FFFBFFFDFFFBFFFEFFFD0001FFFF0002FFFE0001000700030002FFFAFFFEFFFE0000000100060003000100010002FFFD0001000100050002FFFE00020003FFFCFFFBFFFDFFFAFFFAFFFCFFFC0004
0001FFFFFFFF0002FFFFFFFE0001FFFFFFFFFFFA00020001FFFF0004FFFFFFFEFFFB0002FFFBFFFEFFFDFFFD0004FFFE0003FFFF0003FFFEFFFF00010005FFFCFFFF0003FFFC0004FFFF0003FFF9FFFEFFFEFFFEFFFEFFFEFFFB00040003FFFCFFFB00030001FFFEFFFBFFFE00010003FFFDFFFD000100020002FFFD00020002
FFFA0002FFFFFFFDFFFCFFFFFFFAFFFDFFFB0002FFFEFFFA0001FFFCFFFCFFFEFFFEFFFBFFFAFFF9FFFAFFFB000100030000FFFBFFFB0000FFFBFFFD0003FFFBFFFDFFFD0000FFFC00000000FFFEFFFC00030003FFFD0003FFFA0003FFFB0001FFFC0001000000010000FFFBFFFB0000FFFF0003FFFAFFFDFFFAFFFD00030003
FFEDFFFFFFF5FFF40001FFFEFFF3000E00040002FFF8000CFFF1000FFFF7FFFAFFEF0001FFFB0000FFF800010002000CFFF3000200040006FFFA00040000FFF40007FFED0004FFFC00030006FFF0FFFD00050009FFFCFFF4FFF20009000EFFF1FFFBFFFAFFFFFFFEFFFB00070011FFF4000500070004FFFAFFF80007FFFB0000
FFF90001FFF5FFF0FFF7FFF5FFF5000C0009FFED0003FFFFFFFBFFFEFFFDFFEDFFF6FFF7FFF7FFEFFFFDFFFF00010008FFFCFFFB000CFFF5FFF4FFFA000FFFF10009FFFAFFF9FFFB0002FFE9FFF5FFE80005FFE9FFF7FFF6FFF80003000BFFF7FFEFFFF5FFF5FFFD0002FFFDFFE600040005FFF6FFFAFFF4FFF0FFFDFFEB0002
FFFCFFFEFFF1FFF0FFFFFFF3FFF100050000FFF7000BFFFFFFF8FFFFFFFCFFF6FFF6FFEFFFFCFFF5FFFFFFFA000A000BFFFD00040008FFF2FFEBFFF5000600010002FFF40003FFFB00010009FFF2FFF80011FFFEFFF9FFF9FFF9FFFE0005FFFEFFF3FFF5FFF4FFFF00080002001000060007FFFB0003FFF4FFF10003FFEC0002
FFFD0000FFF3FFF6FFF9FFFEFFFBFFFC0005FFF90007FFFDFFFA000300020001FFFAFFFB0005FFFA0002FFF600020006000000020006FFFEFFEFFFF600030000000AFFF90003FFF70008000D000100000008FFFBFFF900000006FFFCFFFBFFFEFFF8FFFEFFF9FFFE000CFFFD00010008FFFFFFF90004FFF7FFFAFFF6FFF20002
FFFB00050000FFF50009FFF9FFF50008000D00010008FFFB0000FFFD0002FFFC00040002000D0010FFFF0005FFFA0007FFF80008FFFE0002FFF9FFF8FFF90000FFFD00020004FFFDFFFB0001FFFF0001FFFEFFFDFFF7FFF5000BFFFFFFFE0002FFF8FFFB0008FFFB0001FFFF0004FFFDFFFAFFFF000B000FFFFA0000FFFF0002
FFFAFFF6FFF6FFFB000E00040002000A0010000A0001FFFF000C0002FFFD0008FFF3FFFD0012000BFFFA000400030000FFFB0009FFFD000B0001FFFC00030002000AFFF00001FFF8FFFB0000FFF50002FFFF0004FFFCFFFCFFFDFFFE0004FFFC000A000300060007FFF5000A0004FFF9FFFA000A000B0003001000040003FFF9
FFFE00040002FFFF0005FFFB00010001FFFDFFFCFFF9FFF70007FFFD0002FFF8000BFFF8000D0006FFFDFFFF00000003FFFC000A0006000A000000030007FFF8FFFF0000FFF600070001FFF10005FFEE0003FFF40001000400010000FFFFFFFDFFFE0007FFFDFFF90004FFFFFFFB00030003FFFE0008000FFFFD0005FFFAFFFC
0001FFFB000A00060007FFFB00010005FFFBFFFF0006FFFB0008FFFFFFFD0003FFFDFFFB000000030001FFFD00030003000100080004FFFFFFFC00000007FFFBFFFEFFFCFFFEFFFC000200010005000AFFFC00050003FFFF0000000A0000000600040007FFFBFFFEFFFBFFFEFFFDFFFB0000000E0008000B0004FFFC0001FFFE
0000FFF2FFF9FFFF0006FFFEFFFFFFFCFFFDFFF40001FFFBFFFA0006FFF7FFFFFFF700050002FFFB0004FFFB00070004FFF60005000DFFFAFFF6FFFD000300010009FFFEFFF6FFFC0001FFFD0008FFF50005FFF7FFFA00030002FFFDFFF8FFFEFFF70003FFF700050008000300000008FFFCFFFA000AFFFC0000FFFEFFFAFFFE
FFF80008FFFFFFFA000CFFF8FFFC0008FFFF0001FFFDFFFFFFFD0005000400030000FFF4000F000FFFFA0004FFF6FFFFFFF6000D00020005FFF5FFFAFFFEFFFD0002000300080002FFFE00080001FFFFFFFBFFFFFFFAFFFA0004FFFA00000005000500090004FFF900020005000EFFFAFFF9000500120008000700060003FFFC
FFFEFFF5FFFDFFF9000A000C000300080017FFFE0004FFFE00040006FFF50000FFFF0003000C000CFFF9FFFF00020007FFF1000300030009FFFEFFFCFFFF00090008FFF30001FFF90001000CFFF9FFFF00050008FFFD0001FFF8FFFA0001FFFB0006000100000001FFF900050005FFF9FFFA0008000CFFFF000A0006FFFBFFF9
FFFD000500060002FFFEFFFAFFFC0003000AFFFEFFF00001FFFFFFFE0005000200000000000A000B0007FFFE0002FFFF00000004000C000AFFFAFFFF0008FFEE00020004FFFD00020007FFFE0006FFF4000BFFF500010000FFFD0005FFFCFFFBFFFE000BFFFDFFF6FFFF0006FFFD000100060001FFFF00090000FFFE0001FFF8
FFF8000200090004FFFA0001000300020000FFF6FFFFFFFCFFF8000100020004FFF8FFFCFFF6000500050004000300040006000BFFF8FFF80005000600040005FFF4FFFFFFFC000300000003FFFD0008FFF8FFFA00010003FFF8000100040004FFFF00080001FFFB0002FFFF0002FFFF0004000A00080007FFFCFFFF00050008
FFFFFFFEFFFE000500070003FFF7FFFC0007FFFCFFFFFFFCFFF5000300030000FFF50000000800090000FFFB0007FFFEFFFB00050006FFF3FFFEFFFD0001FFFC000EFFF9FFF6FFFBFFFF00000003FFFC000FFFFBFFFC0008FFFCFFFFFFFCFFF90000000DFFFFFFFA0009FFFE0002000C0003FFFB00040005FFFFFFFAFFFA0005
FFFD0001000200010009FFFB00020014000E0007FFFEFFFFFFFB000200040004FFFEFFF9000800060000000CFFFA0002FFFF00120009000BFFF4FFFFFFFA0007000000030005FFFEFFF80010000400030004FFFC0001FFF70004FFFE000A000A00030012000AFFFBFFFC000C0005000200040009001200060006000400040000
FFF7FFF6FFF6000000060001FFFA000D00100004000CFFF90010000CFFF80005FFFB000200000010FFF9FFFA0004000BFFF30008000C000CFFFEFFFCFFFEFFFA000BFFF30007FFF6FFFD000DFFFB00030008000FFFF50002FFFDFFFEFFF9FFFA000A00010002FFFCFFF30002000AFFFAFFF50010000CFFFC000C00050006FFF6
00000006FFFEFFFFFFF8FFFFFFFD000200000005FFEF0002FFFFFFF3000BFFF70000FFF80001000E0002FFFFFFFF00030003000E00060009FFFD00030002FFF50006FFFFFFF700050006FFFBFFFCFFF00011FFF2FFFFFFFC0006FFFF000BFFFBFFFF00140005FFFE0000FFF4FFFAFFF90000000400000005FFF8000200000006
FFF70003FFF90002FFFAFFF8FFFB0005FFF8FFFC00050001FFFF000000080001FFFCFFFDFFF4FFFE0001FFFBFFFD0008000AFFFCFFE6FFF5FFFEFFFE00010000FFEDFFFA000700010003FFF9FFFC0006FFF2FFFCFFFAFFFE0001000A0007FFFFFFFDFFFD0007FFF8FFFFFFFE0003FFFEFFFF000C00020004FFFD000000090007
FFF90005FFF30000FFF800070000FFFDFFFCFFFF0001FFFAFFF400030000FFECFFF600040005FFF80001FFF70002FFF9FFFCFFFAFFFDFFF9FFFEFFFC0005000200030007FFF2FFF700010001FFFCFFF70003FFF50001000CFFFD0008FFFBFFF9FFEE000AFFFB0000000CFFFCFFF60002FFFBFFFD000000000004FFF7FFFD0007
FFF8FFFC0004FFFF0005FFF5FFFA0005FFFF0009FFFAFFF1FFFE00000002FFFF0000FFF6000B0007FFFD000BFFFBFFFFFFFA000700030004FFFC0002FFF80000FFF70004FFFB0000FFFF0002FFFDFFFBFFFAFFFCFFFEFFF4FFFDFFFE0006000AFFFD0006000BFFF8FFFE0003FFFD0001000500070005000E0006000800020001
FFFBFFF9FFFCFFF600050005FFFD0005000D000CFFFEFFF900190011FFFA0003FFFFFFFC000C0006FFF50006FFFF0003FFEF00050007000AFFF2FFFEFFFA00020006FFF90001FFEEFFFB000BFFF4000A00030008FFF4FFFA0007FFF9FFF6FFFA0005FFFDFFFAFFFFFFEC0007000DFFF7FFF80009000EFFFD000EFFFF0009FFF6
FFF3FFFC00060002FFFEFFFBFFFAFFFD0001FFF7FFF3FFFE0005FFF20008FFFAFFFEFFFD000A000300000000FFFCFFFFFFFF00020009000BFFF60001FFFCFFF800030000FFF6FFFF00040002FFFBFFF90008FFF4FFFDFFF4000400020000FFFEFFF7FFFD0002FFF70006FFFCFFFBFFF70004000700040007FFFE0000FFF9FFFD
FFF1000500070002FFFEFFFBFFF9000CFFFBFFF8FFFF00010005000800070000FFF8FFFDFFFCFFFDFFF9FFF2FFF900060008FFFDFFEBFFF500020003FFFFFFFBFFF80003FFF900040003FFFDFFF60004FFF1FFFCFFF7FFFDFFFC000100030003FFFFFFFC0002FFFA000300000001FFFB0000000B00090005FFFFFFF6FFFEFFFC
FFF700010000FFFD0003FFFFFFF400010003FFF9FFFEFFF5FFF9FFFCFFF80000FFFC00050002FFFBFFFCFFFD0005FFFFFFF5FFF10003FFEBFFFAFFFFFFFBFFFB0002FFFCFFF6000400070002FFF6FFF90008FFFCFFFF0004FFFC0003FFFBFFFCFFED0002FFFEFFF800050004FFF10003FFFDFFF3FFF9FFFCFFFFFFF6FFF80001
FFF300000000FFFC0006FFFAFFFE000100060007FFFAFFF8000100000001FFFDFFFBFFFC0002000AFFFC0008FFF10002FFF7000700040002FFF9FFFFFFF8FFFEFFFC0000000100010001FFFCFFFCFFF9FFF8FFFFFFFFFFF80001000100060009FFFF00020009FFF70006FFFF00040003FFFE000800070003000800030005FFF8
0002FFFA0001FFFB000C000000070007000A00060012FFF60008000DFFFDFFFAFFF7FFF800090005FFFF0001000600070001000B00000001FFFF0004FFFC000A00070007FFF7FFF9FFFA00080002000000030007FFFBFFFCFFF8FFFCFFFE000000070000FFFF0001FFF300000006FFF6FFF8000D000500010007000200010001
FFFFFFFE00060007FFFFFFF9FFFE000400050003FFFC00030001FFF60005FFF8FFF7FFFF000E000A00050000FFFD0008FFFE000800050005FFF900000001FFFFFFFFFFFFFFF8FFFA000200040003FFF10006FFFAFFF8FFFA0002FFFFFFFA00080003000CFFFEFFFA0005FFF8FFFD0000FFFC0004FFFC000A0003FFFB0003FFFE
FFFB00050006FFFE00040003FFFB000FFFFEFFF7000600030001FFFE000CFFF9FFFDFFFD000000030002FFFCFFFD0004000F0008FFFBFFFEFFFDFFFEFFFD000100020003FFFFFFFF0003FFFFFFFB0005FFF80000FFF9FFFDFFFC000600080001000100000009FFFB00010000FFFEFFF80005001100030011FFFF000100010007
FFFCFFFBFFFCFFF7FFFC0004FFFD0004FFFFFFF70004FFFBFFF8FFFFFFFDFFFCFFF7FFFC000BFFF60001FFFA0007FFFCFFFC00000005FFF10007FFFBFFFEFFFBFFF9FFFFFFF6FFF900010003FFFDFFFA000DFFFAFFFE000400020000FFFD0002FFFB0002FFFFFFF90007FFF7000000020002FFF4FFFC00000005FFFB0000FFFF
