000100000003000C0007FFEDFFF8001D000FFFEEFFF8000BFFFCFFFC000C0001FFF2FFE5000EFFFBFFF3001C0000FFF9FFEEFFEDFFF4FFEDFFEA000D001BFFF400090012000AFFF100070013FFEB000DFFE0FFF4FFEFFFF900170014FFFB0013FFF8FFFA000AFFEC000300140012000BFFEF0007FFEFFFEEFFECFFF40000000F00100013000500140013FFF3FFE5000F00030008000AFFF1FFFAFFEB000E0001FFDDFFF0001D00060010FFFB00070008000DFFE1FFF6FFEF0012FFE5FFE8FFF500030011000BFFED00040012FFFC0013FFF0FFF70003000000160000FFE9000FFFF7FFFB0013FFDA0007FFF4FFFD000FFFF4000E000B0018FFFBFFF700080014
FFFDFFF3000BFFF3FFF100140002FFECFFFEFFF40005000E0007FFEC000C0006000BFFE6FFFB00060000FFE4FFF2000A001AFFECFFE7000600110014000A000C0009FFEBFFFA000FFFFB0014000EFFF400060005FFF10015FFEAFFF5FFF1000FFFF2FFFB00140005FFF50011FFF30014000D001200040012FFEDFFF3000BFFE90003000DFFF0FFF4000DFFEB001D000AFFF200080012FFF2000AFFE8000CFFFCFFE3FFE0FFFC0004000FFFF2FFF5FFF1FFEF00150013FFF2FFEFFFF3000E00000016FFF0FFFF0016FFF3FFEFFFFB00030011001A000B0006FFF40010000FFFE80012FFFEFFF3FFF9FFEC0003FFFBFFF7FFFE0009FFECFFE6000DFFF7000FFFF3
0007FFF8FFF200110006FFF4FFFBFFFD000100110023FFEAFFFBFFEE00050001000E000E00140010FFEFFFF8FFFE0012FFE00001001DFFF4FFF50005FFED0015FFFEFFF7FFFFFFDFFFF8FFFCFFED0011FFEE0007FFEA00070005FFE80010000FFFF50018FFEB0009FFFBFFDAFFF3FFF9FFFFFFFF000B0003000D0022FFEC0017FFEF0003FFF8FFF9FFF3000C00020005FFFF001400060014FFF3FFF7FFDFFFFA0007001C0009FFE5FFFEFFF4000EFFEB00130018FFE9000A0009000F0013000B00030007FFEC000B000FFFE40000FFF60009FFFEFFFAFFF5000100040003FFEAFFFCFFDE0008FFF600210004FFDB00110006FFDB0017FFEDFFF3FFF0FFF5000C
