00110008FFEE0008FFFF001AFFF5000E000E
00050011FFF900110008000F00010010FFED
FFFBFFF6FFEB0010FFF6FFFAFFF80006FFF4
0027FFF5000D002EFFDA0030FFD20008FFE5
001B001D000EFFEEFFFEFFECFFFC00150009
005DFFB4FFDDFFA2FFC9003F00200048FFE0
0010FFB5FFFCFFCA00490000002100210013
00440097FFAAFF9CFF9A0078FFDE002FFFC8
FFEF003B001B001BFFCCFFC5FFD1FFCD0047
0012FFDFFFCE0026FFF2002AFFE3001DFFD2
FFE0FFE20049FFD0FFC4003B002BFFEF0020
FFFAFFF6FFFA0000FFF7FFFF0001FFF8FFF5
0005FFF9FFF4FFEA000300030013FFEEFFEA
FFF8FFF6FFFAFFFDFFF90002FFF9FFFBFFF8
FFE10044FF9D001E0055FFE1005BFFB4FFD7
FFF1000BFFF20004FFFA0005FFEEFFF1FFFD
