FFFFAB39
00006517
FFFE7F95
00006018
00002B38
FFFE9163
FFFF0712
000066A1
00009DC1
00002149
FFFFD2A5
0000C94C
FFFF5EAB
FFFF335F
FFFF2E1D
00004594
FFFF412D
FFFF633B
0000FC73
0001F3A7
0000C238
FFFF8165
FFFF7F6A
FFFF50DF
000030E7
0000D127
FFFFC734
00002F21
FFFF3302
00005979
FFFF5FA7
FFFF818F
FFFEA99F
0000D0FB
0000C464
00007FE0
FFFFDCA4
0000A1A7
FFFEBCFB
FFFF0D01
FFFF2E01
FFFFC6A5
FFFF8405
00009214
FFFEF47A
FFFF357E
FFFF925C
00012843
00003D83
FFFF8862
000018B2
FFFFD701
00004596
FFFF4C7A
00000F77
FFFFA3B2
FFFEFFCE
FFFF4A08
00000B15
FFFF3FAB
FFFF2F47
FFFEFC34
FFFFE30E
FFFEDD24
