000400200010FFFD0009FFF1FFE7FFFAFFDE
FFFD00130011001D000AFFFB000AFFD2FFF5
FFF1FFF6FFEDFFFFFFFE0007FFFD001B0005
0003000DFFF50007001A0018FFF800010004
FFFAFFE70009FFF8000BFFE100020010001A
001B000F001FFFFFFFF8FFF6FFFDFFEF0013
0004FFFFFFEF00100003FFF8FFFB000C0007
001400050012FFD3FFE60005FFF60006FFEF
001BFFFA000400220013FFF2FFE5FFEE0004
FFF9FFFFFFFD0005FFF2FFF2FFEEFFFF0001
0006000DFFFFFFF1FFF9FFEFFFF6FFFCFFEA
00110025000C001C00190012FFF2FFF4FFFA
FFE3FFDDFFE9FFDAFFE1FFEE0007FFF40007
0013000E00140009FFFB000DFFF10021FFD4
FFF2001DFFFBFFE1FFFAFFE1002500390031
FFFFFFFBFFF9FFFDFFF1FFEC002B00170000
FFFBFFF7FFFAFFF6FFFFFFFD001800000019
FFFFFFFCFFEE0001000F0015000AFFF7000C
FFD9FFD9FFEAFFFFFFE2FFEB000D001E0016
0015FFF0FFFC00110013FFEB000400140017
0010FFE100100009FFEFFFF7FFD60006FFF8
FFFBFFDE0001FFFF0007FFFD0000FFD7FFE7
0009FFF20009FFE40008FFEA00160004FFFC
0020FFFD0011FFEAFFEC0007FFDE00040020
001E000DFFF90016001B0011000A00120027
FFFE00130018FFE9FFFAFFF5000400100020
0008001A00020003FFF7001CFFE0000BFFE9
0001FFF9FFED00220018000E001C00040002
FFEFFFE4FFECFFE3FFE4FFDCFFF600050027
000A001F00060001FFF6FFEFFFFBFFD2FFF1
0010000000010011000C000D000CFFF20003
0006FFE9FFEBFFFD0001FFF3FFF0FFFE0002
0003002AFFFA000B001DFFF30011FFFE0019
FFFF000E001EFFE0FFEA0004FFEF00130007
FFFEFFFE001700070003001000020007001C
0001FFE3FFE7FFF3FFF1FFEBFFFDFFF6FFFF
FFFCFFE5000A0006FFEB001AFFF4FFDA001E
FFF0FFF60008000D0007FFFF00040007FFE4
0015FFFD00020006000DFFF9FFEB00100019
FFFF0003FFEE00030012FFF400030005FFE9
0021000AFFF10007FFFAFFE40003FFF1FFFC
FFFC000F0010000CFFEF000200080007FFFB
FFFAFFFEFFFCFFFC0018FFFA000DFFF50001
0000FFE1FFF6FFF3FFF5FFF70009000B0005
FFF1FFFA001AFFF8FFF9001CFFE2FFFE000F
FFE4000CFFF5FFFEFFD7FFCEFFF80001FFE9
FFFDFFF1000CFFEFFFEBFFF7000500160009
00080000FFF30007FFFA00000012000AFFEA
0000FFEBFFE60008000E00000000FFF5FFE9
000C0006FFFA0023FFF9FFE4000B0003FFEF
FFEF00080003FFFF00110003002A00180019
FFF30007FFFBFFE6FFD9FFDDFFFC0015FFED
FFF8FFE9FFFDFFF1FFF0FFF4FFECFFECFFFE
0006FFF4000D00110008FFF50005FFF9FFF1
FFE1FFFE001FFFFDFFF9001200030018001B
FFF8FFFAFFF5FFFDFFEFFFEC0007001C000A
FFF6FFE400010002FFF00013FFED000E0016
FFE6000E0011FFF2FFE2FFF8FFEE000F000C
FFFEFFEAFFF5FFEBFFF70006FFE8000FFFFB
00050018001CFFE9FFF30018FFEF000BFFFE
FFFBFFE10009FFF80001000BFFDEFFE5FFE4
FFF7000D00180014000CFFFBFFE600120025
FFF100180012FFE9000DFFFE0003FFF8FFED
FFE3000A001E00110005001B000100000005
00020001000000280021000A001E00030004
FFD3FFFA0016FFFF00060017FFEEFFF3FFF6
00050009FFFEFFEB00150003FFEA00050013
FFFB000B0014FFE7FFF5FFF5FFE9FFE9FFEC
000F0003FFF5FFE1FFFAFFFF0008FFEEFFFD
FFFCFFFFFFF2FFF8FFF2FFE1FFE0FFF2FFE9
FFF200150013FFE7FFF5FFFE0002FFFCFFFE
FFECFFEFFFF9001AFFFAFFFE0016FFFDFFEC
FFEB0019000C000C000AFFF1FFF1000A000B
FFEB00100019000700060002000600210005
FFFDFFFE0003001AFFEFFFF6FFF7FFFEFFF0
000F001000080000000BFFFB00050001FFF4
FFFC0012FFF30018FFFB0000FFEB000CFFFC
0009FFF3FFEC0011001E001DFFEBFFE7FFE9
0000FFFF000B0007FFFCFFF9000F000F0012
00040009FFF6FFEBFFFB000E000EFFFCFFFE
0006FFFE000200140005FFFEFFFE000A0016
0004FFE6FFF80002000BFFFFFFE9FFECFFF0
0004000700030006FFFC0013001700200029
FFEFFFF6FFF8FFF0FFF50003FFF100120009
FFF6FFE8000F0015001400050011FFF4FFE7
00130012000D002B00080001001DFFEAFFF5
00050013FFF30003000E0006000E001E0004
FFF500190001000BFFFA000200010018000D
00110009000BFFF5FFF7FFFFFFF70008FFFD
0017FFFFFFEC00050006FFFD001F000E0000
000A0016FFFA001F000A00040017FFFAFFE9
00230007FFE7001A0003001B000A00060004
0010001EFFEF0002000B0007000F00120016
000FFFFFFFEB0006FFF9FFF00012FFFF0011
FFF800080006000DFFF00020000E00200034
FFE9FFFCFFE5FFF8FFF4FFFF0018000F000D
FFFE0007FFF4FFF60012FFF6001800150004
FFF600080011FFEFFFF20011FFF2FFF80001
FFF5FFFA0011FFFDFFF0000C000300020001
FFF4000700070000000AFFF3FFE7FFFBFFEA
FFEFFFFEFFF70001FFE30016FFFAFFFEFFF4
0002FFE6FFF1001400000009FFFCFFF2FFF8
0002FFEFFFE90001FFFE000E000700170000
0005FFF7FFFCFFF700070006FFFC001AFFFC
00040008FFF4FFEF0005FFE2FFF70007FFEB
FFE9FFEE0001000B000F0017FFEEFFFC000E
000CFFF4000E00020005FFF1FFF0FFF0FFE8
FFF10008FFFC000CFFFCFFF80017FFFCFFFE
FFE9FFF00010FFF7FFFF0000000000040014
FFE20003FFE00005FFEEFFE0FFF30007FFEA
FFF6FFF3FFFFFFF1FFFB0004FFF6000AFFF9
000A000AFFEFFFEEFFF8000A000E0001FFDD
0004FFEF0001FFEEFFF4FFDC002200160000
000F0010FFFDFFFB00110013000C0007FFFF
FFF0FFFD0013FFD8FFFAFFF3001300090010
0002FFFDFFF5FFEAFFF1FFFEFFE3FFE2FFE5
FFFB0009FFFC00040022FFF4FFF9000EFFFD
0004000300160007FFF0FFF4FFF5FFDF000E
00070001000500010006FFF3FFEC000BFFFD
FFEB0003000200030002FFF70014002B001A
FFE9FFEF000F0005FFFC0007001C00110022
FFFEFFFEFFF9FFF3FFEE000900130015001D
FFE9FFEBFFFDFFFD000E000E000700160011
FFF600130013000FFFF60012FFF40016000E
0005FFFEFFF4FFED0018000CFFED0000FFF8
0005FFEE0005FFFCFFFAFFF400050013000E
00060001FFF20003FFEEFFFA0006FFFA0005
FFE90000FFFC00050001FFFCFFEEFFFD0014
FFF30010FFF9000BFFFDFFEE001C001D0015
000900180024FFEBFFEC0008FFE1FFE60012
000EFFFD0026FFE4FFF3001FFFF9FFFF0019
FFF2000A0022FFF700030002FFD8FFF9FFE4
000400020013FFF0FFF6FFF7FFEDFFE30012
FFF6FFEDFFEC000FFFEDFFDEFFE7FFE5FFDC
FFEC0019001BFFEBFFE6FFFD0002FFFD000B
FFE4FFFFFFE4FFF90009FFED00040005FFF6
0012FFFC0005FFFAFFF00002FFFDFFE4FFF4
0003FFEFFFF60003FFF00006FFF40011001D
00110005FFEE000AFFFCFFF0FFFCFFFBFFF8
FFFF0014000A00070016FFF1000800120004
FFD5FFEC00080008FFF4FFEBFFE3000F0011
FFECFFF1000C0017FFF0FFEC001A0005FFE7
FFEEFFFDFFE40013001C00190015FFFD0016
FFF4001800050000FFFCFFFD00020014FFE8
000C0009000B0003001CFFEA000700240007
FFFBFFFC000500160004FFE6000CFFF7FFF0
FFF9FFE0FFEDFFFFFFF600070008FFEF0003
FFFCFFF3FFFCFFFA000E000DFFE9FFEAFFD9
0016FFF4FFE70003FFF5FFFEFFE4FFF60017
000DFFE00012FFFCFFFAFFEBFFF8FFECFFF5
000C000D00110013FFFA001EFFF6000A0019
FFE3FFF1FFFC001F0011FFE4000600130001
FFF7000B001F0002FFFA0013FFE500030011
0004FFF0FFF90005000E00030004000F0020
FFEAFFEDFFE40007FFE2FFECFFF6FFEF0019
002200270034001F001E0029FFE8FFF30016
FFE4FFEDFFF0FFF7FFFE0009FFF5000DFFF3
0003FFEEFFE4FFEF000D0017FFEC000A0009
00040003FFF60008000800050010FFFF000E
FFDD000DFFF3000200070007FFF4FFF30015
00000013000B0009FFF3FFF4FFFC00100002
000300160008000A0007FFFF0012FFF9FFFC
FFEAFFFA000EFFF90005FFFCFFF6FFFAFFFB
FFFCFFFF0001FFFB000C001C00110000FFFD
FFF9FFFBFFFC0001FFEF0006000F0004FFFE
FFDFFFECFFF9000400060015FFF80009000D
FFFD0003FFF3FFF0FFFC0007000500130003
000FFFF30010000000110001000200100003
000400150015FFE8FFF4FFFEFFFE0008000D
FFE9FFF600000012FFF8FFF9FFF70001FFFF
0012FFFE0000001500150006FFF7FFF80008
FFFEFFFB001B001D00100017000D00060018
FFF6FFF90001000DFFFE0003FFF7FFF6FFEA
00150012000BFFE4FFF80003FFF8FFF90004
FFFDFFF60000FFFFFFF7000E001600060015
FFFD0009FFF20014000CFFE70004FFFB000A
0012FFFAFFEF001F000F000EFFFEFFF1000B
FFF200040009FFFBFFF8FFF60000FFFFFFFC
0006000A0005FFF900000000FFF4FFEA0004
0010FFFDFFFF0005FFF60006FFF3000EFFF6
0006FFFE0008002A0018FFFD00010006FFFA
FFFA00120013001F001F00080012FFF4FFFC
0002FFF5FFF0001800070016FFFEFFECFFF9
FFFF000BFFF800010008FFF700180008FFFA
FFFDFFFB0007FFE00008FFFD001FFFF10010
000DFFF70013FFF8FFF7FFF3001C001A0009
000E001F0015FFF6000500060009FFFE0009
FFF9000B000200190001FFF500270010FFF5
FFE4FFF2FFF3001E0021001DFFF00004FFEB
FFF4FFF7000FFFDA0006FFE5000400010007
00020014FFFBFFFC000EFFF70004001A000B
FFFF0006000500030005000E0000FFF30001
00030007FFFEFFF1FFF8FFEE002200260035
FFF9FFF7FFFBFFF5FFF50006000BFFF20010
FFE3FFED001A00180001FFF4FFE6FFFAFFF5
FFE6000C0006FFF6FFE6FFF3FFDFFFF70009
FFF200130001FFEDFFF00013FFF8FFF00013
0010FFF0FFF0FFE7000E0013000EFFFC0004
FFE8FFF8000AFFF4000EFFF8FFFB00150012
FFF10008FFEEFFF600040014FFFE00250012
FFFB0007FFFBFFFFFFF3FFE1FFF300020014
00110006000F0004000CFFFE000B00130026
FFFB001BFFFD000BFFFD0002FFF3000D000A
001000060003000F0007FFFC0017000CFFF0
FFF6000BFFF0FFEEFFF90009001D0009000D
FFFB0001FFFC00170008FFF2FFDBFFE6FFE4
FFDDFFFE0008FFFF001C00120017FFF60009
FFFB000DFFEC001D000D000A00020000000E
0008FFF4FFF3001E0028001700050006FFFD
FFEEFFF6FFFAFFF1FFF7000A0010FFFBFFF0
FFF8FFF2FFF200020013002400260018FFFC
00090008FFF2FFFC000300040008FFE5FFED
0005000B0012FFF9FFF6000800000011FFF7
0003FFFF00080005FFFA000AFFF9000BFFF6
0013000AFFF80001002000080001FFF4FFF2
0009FFFDFFFE0015FFF9000BFFFC00160012
FFF9FFEDFFEDFFFD00030004FFF3FFEC001A
FFF6FFFDFFFF001BFFFB0008FFECFFE90018
FFFA00060005000D000500110011000F001D
000D000D0005001FFFFC0001FFE0FFEF0000
000B0005FFF3FFECFFEBFFFB002200170001
FFDA0000FFF3FFF1FFE9FFE30000FFFB0022
000CFFF3000200110004000C000D001E0006
FFF4FFF0FFFA0011000A0005FFEB00030016
0004FFF5FFF7FFFFFFFF0007FFFFFFFC0007
0004FFF2FFFF000F0012000AFFFAFFF8FFF4
00070005000A00030005FFFF00020012000E
FFFCFFFF0009FFF3FFFDFFF8FFE9FFE9FFF5
0007000CFFFF0012FFFDFFFB0005FFF6FFF6
0005FFFCFFF9FFFB00110011FFF5FFFE0004
0005FFF20000FFF4FFFCFFFE0001FFF6FFFF
FFF60003FFF5FFEEFFEEFFF2FFFC0002FFFA
000AFFFEFFEEFFF10002FFF9FFF8FFFDFFF5
FFF2FFFA0001FFF1FFEEFFF800080005FFF4
00020006FFF5000300070008FFF4FFF5FFFE
FFF80005FFF200020006FFF7000500070012
0005000F0005FFFD00120010FFFD00010008
0005000B000200020011000500060002FFFA
000400020006FFF2FFF4000AFFF1FFFEFFFD
00010006FFF3FFF3FFFBFFFDFFEBFFFEFFFA
0003FFFB0011FFFF00070009000300020005
FFEEFFF30008FFF3FFF10006FFF900090004
FFF4FFF5FFFF000C00050001000D00010009
00070007000A0008FFFCFFF4FFFFFFFFFFFE
FFFBFFF2FFFEFFF8FFF300000008FFF6FFF8
0002FFFB0000FFFC000B0004FFF90005FFEF
FFF9000E000F000900110008000D000CFFF8
FFFBFFF3FFF6FFFCFFF6FFF50006000A0002
0008FFF5000CFFFCFFECFFEC0006FFF70005
FFFB0003FFF20005FFF4FFFBFFFAFFFD0005
0000FFF1FFFDFFF5FFF1FFEEFFF1FFFEFFFE
FFFBFFFFFFFE0007FFF3FFFD0007FFF7FFF4
000C000A0012FFFD00080005FFF5FFFA0002
000A00020008FFF8FFFE000A0008FFF70003
FFF7FFF9FFF9FFFE00030004FFFE0009000A
FFFAFFF00009FFFBFFEDFFF70003FFFDFFF9
FFEB0000FFFA00070007FFFFFFFF000A0002
FFF7000000160010FFF7FFF1FFFB0012000A
0018000E0002FFDCFFEEFFF90000FFF4FFFF
FFE0FFFFFFEAFFFDFFF9FFF8FFFFFFF4000E
FFF80000FFF9FFE3FFE50005FFFEFFFCFFF5
00130005FFFF000A00110015FFEDFFF2000B
FFF0000B0001FFF3FFEF0002FFFEFFEFFFF2
FFFFFFF4000BFFF00005FFEFFFFDFFEF000B
FFF9FFF9FFFEFFFDFFFC00040007FFF4FFF1
FFF60009FFFCFFFB0006FFFBFFEFFFF3FFFD
FFEE0001FFF0FFFFFFFB0009FFECFFFCFFF2
000700120013001600000002FFF8FFFD0010
FFF2FFE1FFEF000E00030019FFF9FFFCFFFF
002D0003001400090010001AFFF90009FFED
0019000C0017000DFFFD000D00160004FFFB
0002FFFFFFEE0001000300000000FFFBFFE7
FFFCFFF500060003FFF0FFFFFFF600040004
000CFFF800190003FFF4FFF7FFF900020006
FFFEFFFAFFFAFFEBFFE5FFE7FFF2FFE4FFF9
FFEAFFFAFFEC0014000AFFF9FFFA00030004
FFFE0000000900100006000CFFF500050012
FFE10002FFFC0018FFFD0010FFF6FFF30006
FFFDFFF300000018001B001E000BFFFA000E
0020FFFF0012FFF2FFE600020001FFF40001
000100100030FFE6FFFFFFFC0003FFF60002
002600130025FFE2FFE80011000DFFFCFFF5
FFFC00100006FFEFFFFDFFE90001FFEC0011
FFF1FFF6FFEFFFFDFFF300010007000FFFF1
FFFCFFF2FFDD000BFFFB0005FFF0FFF1FFFC
FFFF001400160007FFF4FFF7FFFF0004000C
FFFBFFECFFF90007FFF8FFEF00150000FFE0
FFEF000A00220005FFF5FFF2FFEEFFF3FFF1
FFFA00180027FFEA001CFFFCFFF1FFE7FFE3
0014000C0022FFE20000FFF200060007FFFF
FFF8FFFEFFE50007FFF4000A000CFFF8FFEA
FFF1FFF0FFF80016FFFA0002001300110003
FFEDFFDFFFE2FFF0FFF20004003B000C0000
FFD0FFE5FFEC0014001A0023FFF600040012
0003FFECFFFFFFF30005000E0002FFFEFFF9
000F0008FFFB00080010FFFFFFFB00010005
001600100016FFFBFFE9FFEEFFF900140000
FFF6FFF5FFEE0015000C0013FFEDFFE70006
FFFE000C000E000CFFFBFFE3000B0004FFF9
FFFAFFF50001FFFE001A001400250013000B
FFE9FFECFFFF001A0014001AFFEFFFF6FFED
0028FFE9000EFFF7FFEBFFE3002300120010
00060010FFF1FFF4FFE9FFF6001A000F0016
0020FFEF0010FFEBFFDDFFE7FFFDFFF40001
FFF4FFF7FFE3001B00080016FFF3FFE2FFE4
FFFCFFECFFEBFFF200030004001900100020
002E0014001AFFEC0004FFF9FFEE0005FFE4
000B001C001AFFE0FFE2FFF9FFED0016FFF9
FFFF0003FFEA00180001000BFFF9FFF3000A
00170000FFFF0006001AFFFBFFF7FFFD001F
FFDAFFDAFFE3000D0006FFF5FFE0FFE40000
FFFA0001FFF0FFFEFFEA0007002200160002
FFFEFFF80004FFF0FFF7FFF400150001FFFC
FFF500120005FFDAFFDFFFED0039000CFFFA
002B00250034FFF40005FFF10003FFE9FFF4
0005000BFFEAFFFB0000FFE7000C0010FFF1
FFE2FFE3FFEE002E000B0019FFC3FFDEFFF8
00080000FFFFFFF50011FFEC0013FFFDFFFB
0027000C000BFFF0FFEDFFE50014FFFB0009
0011FFEE0006FFF00011FFF3FFEC0009FFFC
00020000FFF000220027001EFFF2FFEBFFF9
FFEF001D0004FFFBFFE80003FFFFFFEA0001
FFFEFFEF0006FFF00015FFF8002400230021
FFFD0010FFF1FFFA0006FFFBFFF2FFE1FFDD
0005FFF5FFFBFFFA000E001AFFF8000EFFEE
FFF2000CFFFC00200017000AFFF0FFEDFFED
FFF7FFF2FFE1FFF00008FFF3FFFFFFFAFFD5
FFECFFF0FFE4000BFFF8000F0002FFF2FFFC
0000FFF8FFF0FFF400020007FFEE000AFFEB
000D0003FFFA0004FFFB000AFFE5FFE6000C
FFF5FFF2FFFBFFF10009FFF8000D001FFFFE
0000FFFD0012FFFBFFE6FFED00080001FFF9
FFEDFFFE000C001400170014FFDC00090003
FFF8FFF0FFFCFFD6FFE5FFEC00230004000D
002500110021FFF100130007FFECFFEBFFF4
FFFF00180002FFDA0001FFFA000100050009
FFFE0010FFFDFFF1FFF7FFF7FFF5FFFC0005
000CFFF10006FFE9FFE50004000B000D001F
001F002E0019FFEDFFDDFFE8001C002F0018
0014000DFFF2FFD3FFF4000400130001FFFC
FFFBFFF7FFF3FFF800050017FFF9FFFFFFEE
000F000EFFE2FFE60002FFFE000B00140001
000700110012000B0013FFE30009FFF2FFF8
0011FFF10003FFFA000A000400000019FFF9
000A0008FFF7FFF1FFE6FFEF001300090001
0002FFFAFFE8FFECFFFEFFF8000F00100012
0003FFFB0016FFFBFFE9000F0014FFF2FFEF
00150009FFFD0019FFF3000AFFFBFFF2FFFE
FFED001F0021001500280014FFD4FFF3FFF5
FFFFFFF300030010FFFD0001001D00100011
FFF2001B0023FFF5FFF9FFEB00180003FFF2
FFFB000A0007FFFC000500030014FFFCFFFE
FFF20002FFF3FFFC0000FFF4FFF7FFFDFFFC
FFF7FFF60005FFF50001FFFF0004000A0001
FFF2FFF50002FFF7FFF60000FFEEFFFAFFEF
FFFAFFF1FFF9FFF4FFEFFFF5FFF9FFFBFFFF
FFF8000400020005FFF9FFFBFFF4FFEDFFFB
0006000B000E0003000DFFF600070012000C
0006000EFFFEFFFC0004000AFFF0FFEBFFEE
0003000D0000FFF70008FFFEFFF70003FFFA
FFF1FFEEFFF2FFF6FFEDFFE00009000BFFFE
000D0008FFFAFFF300000004FFF2FFF00000
FFF900010005000400000010001A001B000D
FFF4FFF90001FFF7FFF5FFFAFFF70009000B
FFFEFFF3FFECFFF5FFFBFFFA001B001D001B
FFFC00080006FFF7FFF8FFFC000300070008
0000000FFFFBFFF90004FFF7001000040007
FFF1FFF1FFFE0008FFFF0003FFF900060005
000400100015FFF4FFFE0000FFFA00020002
00130007FFFD0014000F0017000D000C000E
FFFEFFFEFFF7FFFEFFF2FFF1FFF7FFFFFFFC
FFF6FFFB0003FFFE0009FFF90011FFFF000F
000400040005FFFEFFFFFFF4FFF3FFF90004
FFF5FFF100040004FFFEFFF60009000D000C
FFF2FFF9FFFBFFF6FFECFFE8000D000DFFFD
000B0000FFFC0005FFF1000000080006FFFF
0001FFFD0000FFFA0009FFFDFFFDFFE8FFF3
FFF900020006FFF7FFFDFFFA000800100008
000AFFF70007FFF1FFFFFFFBFFE9FFE6FFE2
FFF9FFFDFFFC0008FFF800050003FFEFFFF0
00060007FFF60006FFFBFFFDFFF6FFF80000
FFEF00000001FFF300050006000D0002000A
FFF5FFFB00000008FFFFFFF5FFF400070009
000D00000004000CFFFEFFFD0009000BFFF3
FFF30003000600190009000DFFE8000A0001
0003FFF40006FFFEFFF0000C0004FFF40001
0014FFFD0003FFE2FFFCFFFDFFFCFFF40013
FFFDFFF80004FFF000080010001200010001
FFF5FFF3FFFC000CFFFCFFF2000900110001
000AFFF30015FFE7FFFCFFEBFFFDFFE9FFEE
0002FFFBFFE5000D000C0010FFFA0006FFFA
0002FFF800030005001300100002FFFFFFE9
00180024FFFF001700060011FFFCFFFFFFFC
00010007FFF8001500060008000C0005FFF8
0006000AFFE5FFF6001C001100050002FFEC
FFFBFFF6FFFCFFF9000B000500100008000F
FFF7FFD5FFF9FFE6FFD5FFFBFFFFFFFCFFFC
003E002F0019FFF90008FFFE0000FFF60004
0014000FFFF90003001700100017FFF50005
000200020003FFFD000F000600090005FFFE
FFFDFFEAFFF2FFFCFFFB000BFFFE0008FFFC
000DFFF70006FFFBFFF60012FFF7000DFFFB
FFFFFFE3FFF400020015000AFFE9FFEBFFFC
FFECFFF2FFFD00090012000F00120003FFFD
000CFFFCFFF3FFEC000DFFFD0008FFF0FFEF
FFEFFFF2FFFE001C0008FFEC000A0004FFF2
FFEFFFE7FFEA00010004FFE9FFFF0003FFEA
00260029001BFFEBFFFFFFFCFFE9000CFFF6
00330014001AFFF90007FFFDFFFB00060005
0034002B001EFFE9FFED000CFFF8FFFD000E
FFECFFF60007FFFC0010FFFFFFF10007FFF0
000F000CFFFE0030000C0009001C00130008
FFFBFFE2FFFAFFF9FFF9000DFFFE0001FFFA
FFFCFFF6FFF4FFE800050008FFF8FFFC000D
0011FFFD0001FFEEFFE40002000BFFF2FFEB
0004FFFC0008FFF0FFF10010FFF4FFF7FFFD
000F000500110003FFF9FFF5FFF6FFEE0004
FFFCFFFD0016FFF1FFFB0003FFE5FFEFFFF0
FFF50006FFF9FFEE00160015000F00150022
0005FFFCFFE9FFF7000300010000FFFAFFEA
FFF30017000200110011000CFFFB000DFFFE
FFEF0007000700100011FFFFFFFAFFF7FFE8
FFEDFFF2FFF40003FFEBFFE7000CFFFCFFFF
0005FFF90005FFFA000E00020009FFFC0003
0008000B001300170014000AFFF8FFE5FFED
FFF600040002FFFFFFF6FFF70016FFF50011
000900110005FFF5FFF2FFF4000DFFF7FFF8
FFF1FFF2FFEEFFF5FFECFFF6FFF2FFF50007
0011FFFB0003FFF3FFE2FFFAFFF60007001B
000AFFFBFFF600190002001D00130002FFEA
000C00160004FFF4FFD9FFF6000C00160029
FFF5FFF90004FFE9FFF9000B0015FFFF000A
00050011000FFFFE000A0009000900240013
FFEFFFE6FFFEFFF0FFE90003FFF70009FFF7
FFF3FFFDFFEEFFE80000FFF9001B00330021
0015000FFFF3FFEC0002FFEB000200050001
00010003FFFDFFFBFFF3FFF30010FFFCFFFD
00000004FFEE00020004000CFFFEFFF3FFEA
001600140014001100110008FFF100030030
000AFFF9FFFDFFECFFF5000400030014FFF0
0009000A0010FFFA00110009000B0009000B
FFF6FFF5000BFFF9FFE8FFFFFFFE00170009
FFF7FFF4FFEF0015000AFFF20001FFFFFFF4
0013000BFFF50020000D000E00230005000D
001EFFFF00040003FFF5FFF7FFF70011000A
FFEE00140003FFF40006FFEEFFF1FFFDFFF9
FFF1FFFC000B0001FFF9001E00220017001B
000CFFF4FFECFFF40009FFF5FFF800100006
0001FFF8000300130027000DFFF200010002
FFFA000100040001000D0008000C0014000A
FFEAFFEE0017FFEC0007FFFD0013FFFA000A
FFF9FFEA0015FFFFFFF2FFEDFFECFFEFFFF1
FFFBFFEC000300050004000E00090005000F
FFFD000C0018FFF9FFEE000A001A0009FFFF
0007FFFAFFF30004FFF7FFED0008FFF7FFEC
FFF6FFF1FFF8FFFF0004FFECFFFF0003000B
FFFDFFE7FFF50000000EFFFD00070009FFEE
FFF6FFE90021FFFB0007001200060008001A
00010006000E001A0004FFF1FFF50004FFEB
FFE5FFF2FFF8FFE7001300010014FFFE0009
FFF8000B0019000BFFFF000B00080004FFEF
FFFDFFF9FFF1FFFF0016FFF0FFFB0015FFF0
00070011000E000D00140019FFEAFFFAFFFE
FFEF0014FFEEFFF70005FFE400070011FFFB
FFF3000E000B000A001BFFECFFF700050008
000D0007FFF5FFF7FFF1FFECFFF8000BFFFE
0004000D0003FFFEFFF50002001600080004
FFF6FFF5FFF9FFEAFFEBFFFC001000080007
00080016FFF5000B000E0006FFEFFFF3FFF3
000C001A001C0002001C0001000A000C0010
000600080007000000020013000700000003
0004000D0011FFE30005000BFFE90000FFFA
FFF4FFF00012FFFB000F00070007000AFFFB
FFFAFFEA000AFFFBFFF20023FFE4FFEC001B
0004FFEFFFF300140000FFF2FFE80005FFFF
FFF1000A00240005FFF5001EFFF900110023
FFF800150014FFF2FFFC0001FFF3FFF5000F
FFF40005FFF70003FFF9FFFBFFE7FFF5FFF0
0006000FFFF80012001C00030002FFFBFFF4
FFF6FFF2001AFFFB000500180006FFFE0015
FFFC00180006FFF80004FFF9FFF200020001
00020008000AFFF7FFEA0007FFF900150016
FFF0FFF00001FFF40001000C00090008001E
FFFEFFF7FFF8FFFCFFF3FFE8FFF3FFFCFFF6
FFF50003000E000EFFF00004FFFE00030018
0002FFF4FFEA000000170002FFFCFFE2000F
0015FFFFFFE6000CFFFFFFF00014000BFFF2
FFE8FFEA0001FFF50003000C0008FFF0000F
0018001300110003FFFAFFF9FFF10007FFFF
0005FFF2FFFF0002FFF3000FFFF2FFF00012
FFFEFFFA0009FFFC0010FFFB000B00180001
000E0004FFFB0003FFFE00190019001E000E
FFF4000FFFFCFFF70005001CFFE7FFE90007
00010001FFF10006FFF4FFE100010017FFF5
FFE000080009FFDC0001FFF00012001B000B
0017001B00030007FFF30001000A0001FFF6
FFF0FFFBFFFDFFEBFFF1FFED0003FFEDFFE2
FFEEFFEAFFEB000CFFFAFFF8FFFC00030008
00220002000BFFE9FFF5FFF500200009FFF4
000AFFF0FFFFFFE7FFFCFFF30005FFFF0010
FFECFFF6FFE90012000F0008FFF3FFED0005
0016000700120006FFF7FFF9FFEEFFED0014
FFECFFF6000FFFE300070005000D000EFFF4
FFEA00010009000FFFEF0005000C00150000
FFFA0001FFEFFFEBFFF5FFE80005000D001D
FFEBFFEA0000FFF9FFE9FFF20007001A001D
FFF70003FFE1000A0007000BFFFB0000FFEF
FFFC00140001FFFE0002FFF9FFF7FFF3FFFA
FFEFFFF30003FFFCFFFE000BFFEBFFE7FFEC
FFF60008000DFFED000AFFF3FFEC000A000B
001600050003FFFA0008FFDF00140009FFF2
0004FFFD0004000B0002000CFFEF000E000E
001CFFF5FFFBFFFD000FFFF4FFF00001FFE9
0007000A000A0003FFFB000A000FFFF00002
000F0010FFF6FFECFFFDFFFFFFEDFFF1FFEE
FFF5FFEB0005FFF4FFE9FFFD001300070008
FFF1000DFFE8001BFFFE000AFFEDFFFEFFEE
0000000A0010000CFFF9FFF0FFEBFFEDFFF7
FFF2FFFAFFF1FFF2FFFCFFF40002FFFFFFF4
FFEAFFEBFFFC00080004FFF60017FFF5FFFE
000A0001000E0018FFEF000B0005FFE6001B
0007000500180014FFFF0007FFF80015FFF5
FFF3FFFB000F0004FFFEFFF7FFFB000A0005
0016FFF3FFF10002001100080008FFFC0001
FFFE0014000AFFFF0009000FFFFA0002000E
001CFFFDFFEC00180019001DFFF7FFF4FFF8
FFF9FFF800050006FFF500070013FFF70014
00010009FFFDFFF30007000E0006FFFA0003
FFF0FFF90004FFF0000D000F0017001F0003
00100006FFFDFFFFFFFDFFF6000900140001
0000FFFBFFE70020001A0007FFDFFFECFFF6
FFF7FFDCFFFDFFF10000FFE9FFFE0010000F
FFF100010007FFE4FFE5FFFDFFFA0012FFFB
0009000DFFF9FFF90007000D001A00100014
FFF6FFEE0002000A00100003FFFE0022000C
0016000A000DFFE8FFF4FFF0000AFFE8000A
0014001AFFFEFFEC00110002FFE8FFFAFFF1
00200027FFFBFFE6FFF7FFF9FFFC000FFFFA
000CFFF10009FFEC0003001100010013000E
FFF80027FFFB0008002C0010FFFF00290007
FFDCFFEB00020017FFF9FFF30004000F000F
00060001000B0009FFFCFFFEFFF00002000B
FFF1FFEEFFF0FFFCFFF1000DFFFD0007FFF6
0004FFFF0008000900170009FFFE0018FFEA
0003FFFA00080019FFF8FFEE0002FFF3FFFE
FFF1FFFDFFF6FFE10010000100030015000A
0011FFF5FFF00003FFFC001900180019FFFA
FFF300090011FFF70007FFFAFFE3FFFEFFF7
00150001000CFFF10000FFEFFFE9FFFDFFF1
00070016000D00080006FFFDFFEB001A0019
0020000400180002FFF1FFEA00000003FFF2
0010FFEF000DFFF70002FFEC0007FFF50000
00020003FFF9FFE900090000FFE6FFFC0000
FFF7FFE70008FFF2FFFC000FFFFF000F000E
FFFAFFEC0007000E00070011FFF2FFFC0006
000E0013001BFFFEFFFEFFF7FFF3001C0008
FFF9FFFA0002FFFBFFF2000B000E002D0014
FFF90000FFFB0014000E0019000E00060018
0006FFF7FFFD0002FFFC000E000E0018000F
000FFFFBFFEDFFFB000AFFFC00090007FFFF
000D0012FFFBFFF70006FFFB00130002000D
FFF7FFF8FFF8FFEAFFFAFFEA000B0003FFED
000B0006FFE9FFDD0006FFF6001900340015
FFFCFFF9FFFD000D000BFFF300100004FFFA
FFF9000BFFEF0002FFFB0010000CFFF3FFEA
0007FFFC00120010FFFFFFE8000B00330005
FFFAFFF3FFF70010FFF60002FFFF00290020
000D0007FFF8FFFBFFF90002FFEC000EFFF7
0004FFEC000F0000000B00170001FFFEFFFB
FFEEFFF0FFFE0001FFF900120006FFF0000F
FFFE0010FFE9FFF3FFE7FFE80000FFECFFFB
0001FFEFFFF30006FFFE000C000C0002FFE5
0003000B000A0003FFEBFFF7FFFB00120012
FFF40005FFF8FFF10003FFED0004FFE1FFFF
00080006FFF9FFE1FFF700190019000A0013
FFEFFFF6FFEA0007FFEBFFEDFFFBFFF9FFF7
00030004FFF800000002FFF4FFDB0012000C
FFE4FFF5FFEB000CFFDD0001001A00350023
FFFB0004FFFD0004FFF100050004FFE9FFEA
0008FFF3FFF3FFFDFFE6FFFAFFE100010005
FFFF00140009FFEAFFDAFFFC0012FFF7FFF4
FFFF000D000AFFF5FFFF00080012000F000A
FFF300100016FFEAFFE5FFCFFFF0FFF8FFF9
FFF6000E0006FFE50006FFF5FFF700000002
0005FFF0FFE8001400040001FFED002B0022
0011FFE4FFE2FFECFFEE00070009001F001B
FFFD0003FFF6FFEFFFFA000BFFECFFEBFFF1
FFFE00080015FFFE00180006FFE7FFF8FFF4
0004FFFF000F001F000E000D00050006FFF7
00040001FFFC0015001A0005001600060009
0001FFE6FFFEFFFA00210020FFDCFFE2FFF8
FFF8000BFFFDFFF5FFF0FFE80006FFFC0011
00090002FFE8001200000006FFFFFFFA0002
FFF2FFF8FFFAFFFFFFFEFFFBFFF9FFDDFFF7
FFFFFFEBFFEEFFF4FFF8FFEF00300012FFFF
000DFFF6FFECFFEE0000001500140005FFE6
0002001BFFFCFFF300140001FFE3FFEFFFFA
0002FFF20003FFEDFFE60001000900290016
FFEA00050007FFF2FFF9FFF6001100230007
0006FFED0007000B0014FFF4FFE4FFF00009
00070007FFF2FFF9FFFE000C0002FFFA001C
FFE2FFF2FFF8FFEE00060019FFF1FFF1FFED
FFF7FFFFFFF6FFEEFFFC0003FFE7FFFA0007
FFF40006FFEB0004FFF7FFF0FFEAFFEFFFFF
FFF40008000C0000FFFBFFF8FFF2001B0011
FFF50005FFE4FFEFFFE4FFF3FFD7FFE5FFE3
0011FFF8FFE60003FFF1FFEA002400030013
FFF1FFEEFFF1FFFFFFF3FFEA0011000D0005
FFF50003000100030004FFFEFFFD000AFFFD
FFF5FFE8FFF3FFF1FFDF0001FFEAFFE5FFF4
0006FFF4FFFDFFF1FFE6FFF100050001FFFE
FFF4FFFEFFFD000500020001FFE5FFE0FFFA
FFFBFFF2FFFB0005FFEBFFF4FFF3FFEAFFF7
FFF4FFFB0005FFF8FFFE0006FFF900080003
00030007FFFF000BFFF0FFF7000B0002000A
000BFFFFFFFE0005FFF700040006FFF60007
000BFFFBFFF7000AFFEEFFF6FFFCFFEFFFF2
FFEFFFF8FFF90003FFF50003FFFFFFF90000
00120010FFFC000D0001FFF3FFF40005FFF2
0009FFFC0005FFF5FFF7FFF0FFFCFFF70012
FFF1FFEE0003FFFF00060000FFFBFFF0FFF0
FFFAFFFEFFF5FFF0FFFCFFEC0001FFF8FFF6
0003FFF30002FFFB0004FFFB0007FFEFFFF7
000BFFFD000AFFF7FFF5FFF8FFFBFFEFFFFB
0000FFFDFFEF001000070002FFF900070003
FFFE000EFFF6000EFFFF000A00090001FFF4
0008FFF1000200100006FFFF000F0012FFFE
00030004FFF20001FFF800010003FFEAFFF3
FFEEFFFFFFEEFFF60003FFFDFFFD0006FFF8
FFF9FFE4FFFFFFF0FFEBFFF7FFFDFFDEFFEF
FFEDFFED0005FFF3FFF4FFFCFFFAFFF9000C
00040012FFFCFFFC0006000200020008FFF5
00180007FFFFFFFDFFF7FFF6FFFBFFF80005
000400030008FFFD0007000900040006FFFB
0003FFFE0002FFEDFFEAFFEF000AFFF1FFF8
FFFC00030001FFF20002FFFFFFF5000B0000
FFF3FFFDFFED00070002FFF9000900070005
000CFFFAFFFFFFF1000200040009FFF50002
FFFAFFFD0005FFF1FFFAFFF1FFEFFFE8FFE8
0009000AFFF30004FFFAFFF600010002FFFD
000FFFF9FFF3FFFE0007FFF800030021001C
000C000000030007FFF10004FFF8000BFFFC
0004FFEEFFFFFFECFFEB0010FFF1FFF10008
FFFCFFE5FFE8FFFBFFEEFFF5FFFEFFE0FFDF
FFE7FFF2000D0000FFF5FFFC0005FFE20004
0002FFFE000EFFF80005000A0007000BFFF6
00000009000AFFE000030004FFE4FFEAFFF2
FFFE00140015FFECFFEAFFEB0006FFF6FFE6
FFFAFFEAFFF4000AFFF0FFEF000B0012FFFB
FFFAFFFD00100007FFFA000A0000FFF2FFFF
0000FFF9FFEA00110006FFF2FFF2FFFBFFED
0016000C000EFFF90007FFF0FFF4FFFA0000
0003FFFFFFED000600070006001B0009000B
001E000BFFF10005FFF20000FFFD000BFFFB
0014FFF700020011000A000100170000FFFE
000E0005FFFC000E0008FFF3FFFBFFF40009
FFFB0010FFFE000DFFFAFFF70002FFFBFFF4
FFFAFFFEFFF100040009FFF9FFF1FFF2FFEE
FFF9FFEAFFFF00000005FFF700030002FFF9
FFFCFFF8FFE30010FFF10004FFFD0000FFEF
000CFFFCFFF3FFF6FFFAFFFC0007FFF3FFED
FFFDFFE8FFF7FFFDFFFEFFFAFFFEFFF3000E
FFF000000002FFFFFFEDFFED0003FFF4FFF2
000D00120005FFEEFFFC000F000C00150004
000C000F0019FFF200070006FFF1000FFFFF
001500140011FFEF00130013FFEEFFF80001
0009001400050001000500060009FFE9FFE8
FFF3FFF2000AFFEAFFF6FFFBFFFEFFEA0004
FFE3FFEDFFF9FFFDFFEB00000006000AFFFC
0006000B0003FFFE001700130013FFFD0007
FFF0FFFCFFFCFFFC000BFFF7000B0009000B
00050000000D0005FFFFFFFFFFFFFFF1FFEE
FFFC00030006FFFF0006FFF9000500010002
0006FFFD000A000200080007FFFBFFFD0004
00040002FFF9FFFC00050009000600120002
FFF60008FFFA000F000EFFFCFFF6FFFBFFFD
FFF7000B000E0008000A000AFFF200040001
FFF6FFF50008FFF7FFFFFFF8FFF600080007
00020008FFF8000DFFFC00050000FFFBFFEF
FFF90001FFFC000D0002FFF400040007FFFC
FFF60004FFF3FFFE00000007FFFEFFFDFFFC
FFFCFFFFFFF60000FFFCFFEAFFF9FFFCFFFB
FFFBFFFE0000FFFDFFF600080007000AFFF7
FFFEFFFBFFFAFFF600070009FFF5FFFE0002
FFF60004FFF600050008FFF9000A000DFFFE
000C000900080002FFFA000EFFFDFFF1000C
FFFE0002FFF900010000FFFDFFF200030002
FFFDFFFA0005FFFF00020001000600000000
000F000F000EFFFD000E001100000008FFFD
000AFFFF000B0007FFF300030009FFF40008
FFF8FFF3FFF1FFEFFFFBFFF8FFFD000F0005
0001FFF10007FFF600000007FFF4FFF80008
FFFC00070002FFFD0004FFF4FFFFFFECFFF1
0004FFFE00030003000A0005FFFF0006FFFB
000C000B000700120014000A0004000A0005
0007FFF7000900090006000E0008FFF60003
0000000F00100002000B0006FFF90004FFF7
FFF8FFFD0000000A0007FFFDFFF7FFFDFFF0
FFFF0005FFFEFFEEFFECFFEBFFEEFFF4FFEF
FFFC000C000D001100070012FFFB0013000E
0002FFF2FFF7FFFDFFFF000A0005FFFF0005
00060001000700040006000900060008FFF6
FFFEFFF700020006FFFF000DFFF800040002
FFF9000AFFFAFFFB0005FFF6FFF7FFFEFFFF
00160009000C0007001EFFF8FFEFFFF9FFF7
00030015FFFD000300020000FFE3FFFEFFF8
0003FFF9FFF4FFE9FFF5FFF2000F00130016
FFFEFFECFFF5000600050008FFFB00000006
FFFBFFFAFFECFFDF00050003FFFB0012FFFC
FFECFFE9000E0016FFF90011FFF2FFF6000E
FFEAFFF2FFFE0008000700010023FFFFFFEA
FFFB000B000AFFF4000A0009000A000B000C
0024FFF1FFF2FFFAFFFE000CFFE3FFE9FFFA
FFFDFFEFFFFD001F000F0019FFF1FFF2FFFF
000800030009FFEA0009FFED000D00080010
FFF4FFE7FFF6FFF2FFF9FFFA001C0015FFFD
FFE9FFF6001B00110014000AFFF20000FFF3
00070011FFF3FFE4FFD3FFFE001E00070016
0006001000000000FFF6000F0009FFF1FFEC
FFFF000F0012FFFA0010FFE7001000050004
FFF800030001000C0001FFF8000200030001
0013FFFB000FFFF700030008000AFFF80012
000500100019000B0006000B0018FFFE0010
001D0020000EFFE2FFE4FFE80008FFFC000C
FFE6FFE7FFEC001AFFF3FFFE000B0007FFF3
FFFCFFF4FFFAFFE3000FFFF2FFECFFF30006
FFE4FFF90010FFFAFFFFFFECFFF3FFFD000E
FFFE00030000FFF00004000E0027001B0018
FFE3FFF4FFDBFFE1FFEC0011001D00170005
000B000A0004FFE30000FFF40007000AFFF0
00020013FFFAFFFC00000018FFF80010FFF4
FFF90021001400020016FFEBFFE4000B000C
0006FFEC0016001C00170009FFD4FFECFFEC
00030004FFF20008001AFFFF001D00180008
000E0010000A000AFFE6FFF4FFFDFFF3FFFD
00120014FFFA0004FFF8FFFF000AFFF40003
FFECFFEDFFF900010004001CFFF2FFF70013
FFFE0000FFFA00090006000B0002000CFFFC
00020008FFF6000100070010000500000001
00020004FFFC000600050011FFEFFFF80002
FFFC000C000D000800110015FFF9FFF1FFFD
FFF7001A000FFFEDFFFD0009FFF7000D000F
0003FFFEFFEF00180012000BFFECFFEEFFF9
FFFD000900030008000CFFF8000F00100003
FFF2FFF1FFEEFFF10000000C0009000FFFFA
FFFF0009001AFFEDFFF7FFF4FFFA0005FFF9
0008FFF2FFF6000BFFFEFFF5FFF40007FFFC
000B001000050011000D000A00120014FFFB
FFFD001F0017FFF9FFF9FFEAFFFF0005000D
FFE7FFE1FFF1FFF8000600080002FFFE0002
FFF2000E0007FFFAFFFAFFF2FFF9FFFFFFEA
0004FFF7FFFDFFF3FFF6000000060006FFF9
001700080010FFF8FFE7FFFC0008FFF6FFF9
0004FFF200090005000A000D0005FFF2FFFB
0005FFFB000AFFFA000BFFF700090004FFFC
000900050000FFF50002FFFE00070009FFF8
000E0015001E000E0011FFF70012FFF60001
0019000C000FFFF80001FFF3FFFAFFFC0002
0007000C0014FFFCFFE80000FFF8FFFE0002
FFF0FFF3FFFE0016000B000DFFF9000AFFFC
FFF3FFFAFFEB000A0006FFFDFFF2FFFD0002
FFECFFFCFFFFFFFBFFF8FFF7000B0000FFFC
00040014001C000A000A0014FFED00040006
FFEEFFF0FFF5000EFFF8FFFD001000130000
002500150029FFFB0002FFE8FFFA00040003
FFEFFFEDFFEF00070016000A0005FFF3FFF7
0010FFFF00020014000AFFFF0011FFFF0000
0010FFFE0012FFF1FFF0FFF50002FFF2FFF9
0012000E00110013FFF7FFF8FFE5FFF90005
000D0013FFF8FFFBFFF80005FFFDFFF7FFF2
FFFEFFE7FFF3FFFC0006000A00140011FFF6
FFE0FFEBFFF0000A0007FFFFFFF90013FFF8
0003FFFCFFF1FFF90013FFF00016001A0002
FFF4FFFFFFEE0003FFFDFFFEFFF4000B000A
FFFEFFF8FFF8FFEFFFF7FFEC001A0013000E
FFF7FFFAFFF70014FFFD00030000FFF80008
0005FFFF001A000D0007000BFFF3FFF8FFEB
FFF10001FFEF0006000B000AFFF10001000D
0005FFF90003FFF3FFF00007FFF8FFF60018
0006FFF0FFEB00060006FFFE000EFFFEFFFD
FFF5FFE6FFEE00170016001DFFE5FFE7FFE3
000BFFF7000AFFF9FFF8FFE0000B0004000F
000DFFF50009FFFAFFF5FFEFFFF6FFEE000C
FFFCFFFBFFF7FFEFFFF4FFF1FFF4000A000E
0002FFEEFFFA0002FFF10008FFF8FFF8FFF9
000EFFF8000CFFF8FFFBFFFD00060017FFFC
0019001300000003FFEF000DFFFE00010001
0017000B0016FFE8FFEFFFE20001FFEB000B
FFF4FFF7FFF80010FFF900050006000B0007
FFFFFFFFFFF3000A0017FFF4FFF600090007
FFF3FFEAFFE5000D0000FFF7FFE9FFEBFFFA
00030009FFF6FFEE00090008000A0005000C
FFF6FFF2FFF3FFE6FFF4FFEB00260015000F
0008FFF40004FFEBFFFF0001000F000AFFF6
0010000800120011000B0010FFEF000D0005
0000FFFDFFEFFFEFFFF3FFF1FFF90011FFFC
FFE3FFEAFFEE0020000C000CFFE7FFED0006
FFFA0006000AFFFC00010005001200090005
000A00130000000A00010005000DFFF2FFF9
000F0001000CFFFC000F000B000D0010FFF7
FFFD0008000B000AFFFCFFEEFFF2FFF9000E
FFF1FFFA000C0002FFE5000DFFF9FFEB0001
0005FFFD0011FFFAFFF2000D0013FFEB001B
FFFDFFEAFFF70002FFF50002FFF2FFF90011
FFF4FFF20001FFE2FFDE000E0007FFF10013
00080018FFFFFFFF000FFFF60008FFEFFFF9
FFF20010FFEFFFF4FFF9FFDEFFF8FFEF0014
000EFFF6FFEEFFFFFFFA0005FFEF0000FFE9
000C0008FFFEFFFDFFF4FFEE0006FFF5FFFE
FFEBFFF40018FFF300000006FFF0FFFAFFFE
0004FFEEFFEEFFF70005FFF4FFECFFF2FFE1
000400130001FFF50013FFFFFFFEFFFC0005
FFFEFFFBFFFEFFF8000CFFFEFFF20011FFFB
00110021FFEEFFFA000FFFF30014001BFFF0
0000FFF900050002FFFEFFFEFFF200170010
FFFBFFF9FFEDFFEF000EFFDB0003FFFB0003
FFF9FFFEFFD5000B0007FFEC000B0001FFEC
FFF1FFFCFFF1FFF80011FFEAFFFBFFF70002
FFE8FFFCFFFFFFEFFFE7FFEA0000FFECFFFC
000BFFF5FFFF00080000FFF5FFF5FFF80000
FFFD0018FFFDFFEB0005FFEB0006FFF4FFF2
0012000400010002FFF9FFFCFFF5FFF9000B
000DFFFB000B0019FFF8FFF8FFF700110011
000C00210015FFFB0016000900050004FFF5
000B0009000AFFF3001E000A00000007FFFE
FFFA000C0003000CFFFCFFFF00070006001F
FFF6000F0000FFECFFEAFFFB000C0004FFEB
FFFE00030004FFF9FFF00010FFEDFFE5FFF6
FFE3FFF7000600010001FFF9000BFFF20004
0017000E000400140014FFFC0002000A0005
FFF3FFFFFFEEFFFC000BFFE4FFE9FFFCFFE9
FFFCFFFD0010000CFFF8000D0008FFF50005
FFF800020006FFF50000000DFFEB00050009
000500150005FFF5FFF5FFFD00090004FFFA
FFF1000AFFF70005FFF7FFE7001C00150007
FFF4FFF9FFF3000E0002FFF40000000C0005
FFF5FFF4FFED0009FFFA0004000100140008
FFFEFFF3FFFBFFFDFFFC0009FFE0FFF6FFFB
000C0008FFE70005FFF100010015000AFFF0
FFF1FFF900000000FFFD0003000C00130008
0012001BFFFFFFF80003FFFEFFFE0008FFFF
000E00030008FFF6FFF8000AFFE6FFF50001
00100014FFFF000D0003000AFFFA0005FFFD
0005FFFB0004FFFBFFFC0018000C00090018
FFFA000EFFFCFFFB00080010FFFAFFF5FFFB
0005FFF6FFFEFFF4FFE6FFE300030008000A
00010005FFFE0002FFF700120011000B0000
0009000C000DFFFDFFF7FFF80003000AFFFE
FFF5000C00070006000C0007FFFDFFEAFFF0
FFF3FFF0FFEF0008FFF00002FFF0FFEF0005
000E001E0023FFE7FFFFFFF9000A00060013
FFFD0008FFFC0004FFE0FFEFFFFBFFF5000A
0005FFF4FFFB00030018001200000010000F
000DFFFE0003FFFBFFF8FFFFFFF30003FFED
FFE9FFF20009FFF20003FFF2FFFFFFF5FFFD
00020003FFFB00040000FFF5000A00120014
FFFAFFF9FFFAFFF8FFEFFFF7000E0021000D
FFF1000CFFF6FFEDFFF5FFE2000300200015
0000FFFF0001FFFC00060014FFF1FFF9000E
000A00070004FFF2FFF9FFFDFFF30000FFF0
FFEF00080004000A00190005FFEEFFF1FFED
FFFC000DFFF7FFFEFFFE0007000200080003
000D001A0004FFF8FFECFFFC001F000C0007
00010006FFF4FFF7FFFB00020004FFF8FFFA
FFFC0004FFFCFFFF0001FFFA0008000BFFFF
FFF800010002FFFC000C0003FFF60004000B
FFF7FFED00020005FFFFFFFC00050002FFFA
FFF4FFFF0006000C0014FFFE0000FFF5FFFD
0001FFF5FFF6000E000B0013FFF7FFFEFFFE
000A000100070000FFF50002000CFFFBFFFE
000100030009FFFC0010000DFFF0FFFEFFFD
FFFBFFF5000A0000FFEEFFFCFFECFFE9FFF3
FFFD0001FFFD0004FFFEFFF70005FFFA000B
000400080014FFF700000004FFFBFFECFFE7
FFFBFFEEFFF0FFF80002FFF7FFF70008FFF4
FFEBFFF90018FFFAFFFB000000040003FFF7
FFE4FFEAFFF2FFF8000DFFFDFFF90008000C
0014001D001AFFFEFFFE000700060009FFF3
000A000100010005000BFFFF000A000A0009
0002FFFD0006000BFFFFFFFDFFFFFFFAFFF9
000AFFFEFFFF000600010013FFFAFFF3FFFD
FFFF0010000FFFF6000AFFFFFFEAFFEE0000
FFEFFFEEFFF1FFF7FFFD00020013FFFB0002
0003000A00070005000CFFFB00020001FFF6
FFF60006000EFFF7FFFCFFF30005FFFCFFF9
00050002FFF9000300010009FFFDFFFEFFFD
FFFCFFEAFFF7FFEDFFFCFFF70009FFF8FFF6
000A00000005000200070000FFFBFFEEFFF2
00030014000AFFF9000900090005FFFC0000
FFFD000A00150007FFF9FFF900090002FFFB
000E000A0006FFFDFFFCFFF2FFF0FFF3FFF4
FFFA00000000FFFD0001FFEF0004FFFFFFFC
FFF1FFF4FFF3FFF500010007000D0001000F
FFF9000FFFF6FFF9FFFCFFF40012FFFEFFF9
FFF7FFF60001000CFFFF00070006FFFEFFF8
00040011FFFCFFF7FFF4FFF7FFEDFFF8FFF8
0004FFF50006FFF2FFFAFFFA001400050001
00010012FFE40010001800030003FFF8000D
0004000CFFFA0002FFF0FFE7FFE50000FFF8
0005000B0014FFE9FFED0002000EFFF90017
FFF800110010000AFFFAFFF9FFE6FFFCFFF0
FFF6FFFF001500170004000A000800090003
FFFD00130009FFEBFFF7000B001F0001000E
000EFFF900000002FFEEFFEA000E000AFFF6
00100014000DFFFC000700180001FFF4FFEA
FFEFFFFA0017001100040014FFF1FFF10007
FFEEFFF30008FFEE0007001EFFECFFF2001A
001300100013000EFFF800020003FFF1FFEF
000700020000001700100003FFF6FFFAFFFB
FFFF000E0012001300190005FFF9FFE6FFF5
0006FFF0000BFFF50009FFFA0001FFFDFFFB
FFF7FFF9FFF900050014000E00160010000E
0005FFF8FFF6FFF5000A000B0014000C0011
0001FFFC0010FFEF0005FFFAFFF00007FFF5
FFF6FFF2FFF7FFE7FFFCFFFDFFDFFFF50004
FFFAFFE0FFF900100018002100060001001A
FFF60010000D0000FFE9FFF1001400120012
FFF60009FFF500120000000E00040015FFFA
FFF60003FFE00011001C000DFFF600140010
000B00110025FFFDFFF8FFF00014FFF7FFE6
001A0033002EFFE7FFFBFFEFFFF0FFF5FFE8
000100320024FFFCFFEBFFF4FFF3FFECFFFB
FFE3FFFB00110007FFFEFFF50002FFEDFFE8
FFFE0013001A00100001000A000900190002
FFF1FFF1FFF7001A000E000D0002000C0000
0019000B0012FFF3FFFAFFFDFFFB000BFFF5
FFF9FFFDFFF6FFECFFFBFFED000C0008FFFB
FFF7000B000D0014FFF5000BFFF4FFEC0000
0013001900180016000EFFFDFFEDFFF80002
000400000011FFF1FFFCFFF20005FFF30007
00060003000700070005FFF1000E000EFFE8
FFF8FFF9FFFEFFF00009FFFBFFFAFFEFFFF1
FFFEFFFBFFEAFFFBFFF50012000A00050004
FFF70004000B0019001D0014FFF100070010
FFF9FFF2FFDDFFF2000A00040013FFEDFFF7
000BFFFCFFEA0004FFEB000BFFEDFFFDFFF1
00080009000CFFFDFFE0FFE6FFF300020006
FFFF000DFFF6000F00020006FFEAFFEAFFF3
000AFFECFFF7FFF8FFF5FFF4FFF2000AFFE7
FFF7FFF100010011000D000F00030005FFF7
00060003FFF600010005000DFFF9FFF60006
0008000D0007FFEDFFDEFFE6001D0001000E
FFF700070016FFEDFFF5FFEE001200070000
0001FFF5FFFBFFE8FFF6FFE5FFFFFFFCFFE9
FFF0FFE8FFF8000D0001FFFBFFFCFFF6FFFE
FFF2FFEDFFF5000B0007FFF7000700010005
001D0021001AFFFBFFFE000800000001FFF7
00060004FFFCFFFBFFF7FFE5FFF40005000A
FFF3FFF9FFFA00200015FFF600090006000B
FFFB000700020002000AFFF0FFFE00040002
FFE4FFECFFF0001C000D0015FFF0FFFD0009
000FFFFE0005FFF40000000D000F0011000F
FFF7FFF8FFEDFFE0FFF00003000700040006
000BFFFAFFFCFFF1FFF5FFF90019000CFFF4
00080016000BFFF8000200000007FFFEFFFE
FFF1000BFFFAFFF2000FFFF7000FFFF6FFE4
FFE1FFEDFFF60021000AFFFAFFEEFFEFFFFC
001700050014FFF6FFFF00020018000AFFFE
000900000007FFF3FFF70002FFF6FFF0FFEF
0003FFFF000AFFFC0001FFF30007000D0006
FFFAFFF0FFF5000E00160006FFF3FFEF000B
FFFEFFE5000E001E00020007FFFD0012FFFF
000D0001001C000BFFECFFFD0001FFFA000E
000700250004FFFEFFF5FFEF00080008000A
001A00060018FFFD0005000BFFEFFFF00018
FFF3000D00100000FFF4FFEAFFF6FFEFFFFA
FFFAFFF20001FFF6FFF60012FFFF00090017
0004FFF60005FFED0006FFEDFFFD0019FFF9
0005FFF5FFFB0002001FFFFF00020004FFF6
FFEB00140020FFF70010FFFCFFFC0017FFF4
FFE4FFFEFFFDFFF80004FFF10002FFFD0012
0008FFFB0011000F0000000D0003000AFFFE
FFF3FFDBFFE1FFFCFFF2FFE5FFF60000FFEA
0002000B00080013FFFF001EFFEBFFDCFFF1
FFEF000BFFFFFFEB000AFFFA000CFFFE001D
0004FFF8FFEA0005FFF10016000D0014000C
FFEBFFF2FFEAFFF9000EFFF100070015FFEF
FFF50003FFF100040009FFE9FFF4FFF60002
0007FFFC0006FFEE000CFFFFFFEA0004FFEF
FFFBFFD2FFEB0003FFEFFFF3000800050006
FFEB0008000A0000FFF300100004000DFFF1
0021FFF600060023FFFCFFFCFFFC0003FFFA
FFEFFFEFFFFA0011000F000BFFFD00080006
00150012000FFFE9FFEB0001000FFFE9FFF3
0024000D001FFFF6FFFF0006000BFFFAFFEE
FFF900280028FFDDFFEB00060004FFF40006
FFFFFFF7FFF700140011001A000F0006FFF0
0007001E00150010001E001B002000070004
FFE3FFF2FFDE000E00000007000E00020003
000A00220001FFE700050008000DFFFC0002
FFF2FFE5000500120002FFFB0010FFFD0013
FFFB00160006FFF30007000D0008FFFF0009
00110000000C000C0009FFF80002FFFAFFFA
FFED0007FFFEFFF5FFFA0009FFFFFFF90006
FFFDFFEEFFF4000700020012FFF2FFFDFFF7
FFFF0010000B00100016001BFFFD0009FFF9
0004FFFEFFF8000B00080015FFFAFFF8FFFE
0008000A000B00020002FFFCFFFBFFFEFFF4
FFF600070009000AFFFF0008FFF2FFF4FFFD
FFFB000CFFFD0010FFFB000CFFFDFFFFFFFF
FFF2FFF8000600070004000AFFF0FFF90009
00040009FFF2FFF6FFEDFFEEFFF4FFF9000A
FFFBFFFDFFFC000FFFFE0007FFFFFFF6FFFF
000FFFFBFFF9FFFCFFFFFFFEFFF6000AFFF9
0013FFFD0005FFE9FFE1FFF5FFF8FFF7FFFE
FFF9FFF100070000000A00080008000E0004
000F0002FFFF0000FFFE00070005FFF9FFFB
FFFEFFFEFFF0000C000D000E0001FFFE000A
000AFFF9FFFD0001FFF90003FFF30005FFF6
FFF70009FFFBFFFBFFFCFFFC00010006FFFE
FFF1FFF30006FFFFFFFC00020005000BFFFC
000D000A000B00010003FFFCFFF50000FFF4
00150012000200100000FFF9FFEEFFF20006
00170002FFF8FFFB0001FFF6FFF90002FFF0
000CFFF600090001FFF20007FFF40002FFF9
0000FFF2FFFC0014000C0005FFF8FFFA000B
FFF50002FFFD001F001B0010000D000A000A
FFF1FFFDFFF000180010FFFF0007000FFFF9
0008000E0008000D000F0000FFF90002FFFD
000A0007FFF800090000000AFFFE0009FFFC
001600140009FFEFFFECFFE60000FFF6FFF7
FFF7FFFF0008000100040005FFFBFFF7FFFB
FFF6FFFC0007000500110007000B0002FFF3
000EFFF1000CFFFCFFF7FFF6FFF3FFFFFFFE
00130017FFFB00240008000FFFEBFFE1FFFB
FFF80008FFFB000CFFF3FFE9FFF2FFD4FFEB
FFEFFFFA0008FFFAFFFD0013000500130003
000C0007001100090008001B0029001A0008
000E0003000D0004FFE9000F001B00020007
FFEEFFF1FFFDFFF3000C000DFFF0FFFFFFE5
000C000CFFFFFFEE0011FFF0000E000FFFF8
000D0007001100020002FFF300000004FFDE
00140019000700100015FFF4FFE3FFE80003
0004FFF1000B0015FFF9000D000AFFFFFFF7
FFF1FFF8FFF7FFFC000DFFFA0006001E0006
000DFFEF000B00040008FFFCFFF3FFF9FFF9
0007FFF50010FFE8FFEFFFE9FFEBFFF5FFEF
001A00090001001200140015FFE5FFF3FFEB
001500000016FFF5FFE5FFE70016002E0021
FFFBFFDAFFEAFFFA0012FFFA002200290011
0008FFEB000600120017FFE9001C0028000E
0006FFFCFFFD0000FFFCFFF9FFFA001C0002
FFECFFEEFFE900090000FFFEFFF10008001C
FFFFFFF60003000B0007FFFF0011000FFFF4
FFFC00040009FFEEFFF0000A00170006FFF9
FFFFFFFAFFFB0004FFE800050022FFEAFFE4
FFE7FFE9FFF200090001FFEA000CFFF5FFFF
0016000F0008FFF00005001BFFF8FFF70009
000A002C0000FFF7FFFD0018002000110020
FFFB0028000BFFDD000B0012001FFFFC0009
0015FFFEFFFF0000FFF50018FFF8FFE9FFEE
000D0004000B0023001D001C00180015000A
FFEAFFFEFFF10003000B000CFFEEFFF1FFFF
000A000900120019001AFFF9FFF2FFEBFFF7
FFFDFFF1000400040006000F001D00160011
FFEC00030013FFEBFFF2FFF60010FFF8FFF7
0000FFF500030003FFF7FFF4000E00100004
00090003000200000002FFFDFFF8FFF9FFFF
FFFAFFF9FFF60003FFF4000D0000FFFFFFFF
00020009FFFFFFEDFFF6FFF1FFFFFFEEFFFA
0006FFF9000A000A00020005FFF0FFF90000
000E0012000E000100000013000700130011
FFF9FFFD0005FFF5FFF7FFF0FFF4FFE8FFEF
FFECFFF6FFF7FFF2FFF5FFF0FFEBFFF3FFF6
FFFC0001FFF70004FFECFFEF0009FFF9FFFB
FFFBFFF9FFFAFFFBFFFEFFF0FFF1FFED0003
FFFC0000FFFE000900010009FFFBFFF3FFF2
0000000CFFFFFFFA0001000E000200090013
0004FFFDFFF800110002000EFFFAFFFE000A
FFFC0002000DFFF3FFF3000100010003FFF9
0001000BFFF7000C000C0003000C00080009
0009FFF700010002FFF20007FFF3FFF1FFFD
00010004FFFC000500000005FFFCFFF4FFF6
000100010007FFF20000FFFDFFF7FFF40003
FFFCFFED00010000FFF0FFF40008FFFC0004
FFFF0006000400040007FFFC0003FFFAFFF7
FFF7FFFDFFF8FFF70003FFF6FFFA00000005
0002FFFEFFF8000BFFFE0003FFF400070002
FFFBFFF3FFF3000BFFFC000A000CFFFFFFFA
FFFA0006000DFFF9FFFCFFF600000009FFF8
0002000900010000FFFAFFF5000D0003000A
FFFBFFFD00090006FFFCFFF30003FFFE0006
00050004FFFCFFF6FFFFFFF6FFFBFFFB000A
FFFEFFF8FFFAFFFD0003FFF0FFFCFFF70000
000900050001000DFFF6000AFFF9FFF9FFFD
00010002FFFBFFFAFFF9FFFBFFFC00010005
0008FFF60002FFFC0007FFF70003FFFA0001
FFF3FFF9FFFDFFEDFFF5FFF3FFF1FFEFFFF1
FFF3FFF80006FFF6FFF4FFFAFFFFFFF3FFFF
000100030009FFF8FFFD00020001FFECFFF5
000AFFEEFFEF0009FFF8000A000300140014
0003000A0000000B00020011FFECFFF4FFFE
0004000A00070001FFFE0015FFFEFFF80012
FFFA0006000FFFEFFFFB0008FFF10009FFFB
000CFFF70002FFF4FFFFFFF4FFFEFFF3FFFF
FFF7FFFB0002FFF3FFF80004FFF3FFFD0000
000A000B0015FFFAFFFA000AFFFBFFF2FFF0
FFF70000FFF8FFF0FFF8FFF90000FFFAFFEE
00010004FFF30005FFF3FFFAFFFEFFF8FFF7
FFFD0002000D001100140010000B00060005
FFF1FFF6FFFFFFF8FFED0002000A00010003
0010000A0014FFF9FFF600000002FFFAFFF5
FFFB000D00000002FFF7FFF6FFFE0010FFF9
000EFFFCFFF2FFF4FFF4FFF7FFF900060002
000AFFFEFFF70016000700080005FFF5FFFC
000A00090005FFF6FFF90007FFF9FFFCFFEF
FFFAFFF6FFF6FFF6000C0015000B0004FFFF
0001FFFCFFFE000CFFFAFFFFFFFAFFFDFFED
FFFC00060004FFFCFFF7FFEF0003FFF4FFF5
FFEEFFF2FFF5FFF70005FFFCFFFFFFF2FFFB
000B0000FFFF0005FFF6000C0005FFFC000A
FFF80001FFFBFFFC0000000B0000000AFFF5
0010FFFE000200080002000200060009FFF5
FFEBFFF0FFF0FFF3FFEA000100070005FFF9
FFFDFFFFFFF4FFF1FFEDFFF3FFF0FFEAFFF5
00010005FFFD0001000800040005000D0000
0003000BFFF5FFFCFFE8FFED0003FFFF0014
FFFAFFFB000DFFF7FFF6000BFFEEFFF20009
0007000F00170002000F00030003000C0006
FFF6FFF9FFE8FFF8FFEFFFF2FFF0FFFDFFF2
00190018FFF0001A0003FFFCFFF6000B0010
FFE70000FFFBFFF500090012FFFD00010023
0005FFEC0010FFF10002000EFFFD00040017
000EFFFB000CFFF2FFE6FFF5FFE5FFE8FFF5
0012FFF6FFF5FFF2FFF5FFF1FFFBFFDB000D
FFFEFFF1FFF8FFFF000E000B000FFFECFFF3
0009FFE8FFEEFFF7FFF1FFF3FFE9FFFD0006
0003FFF1000A0012FFEFFFF6FFEA00030009
000E0003FFFAFFEEFFF8FFF5FFF6001A000E
000DFFF70006FFF8000500080009FFF9001B
0008FFFDFFF5FFF6FFF7FFE90008000AFFF4
FFFC0003FFFBFFEFFFF90008000D0012001C
FFFC001B0020001400090018FFEAFFFD000A
FFFDFFEAFFFAFFE9000F0024000100010021
FFFA0010FFF8FFE1FFE60008FFF100080004
FFFE0010FFF8FFE6FFFCFFF4000AFFFBFFF4
FFF9FFFFFFE9FFEFFFEAFFEE001800000007
00020000FFE5FFF80003FFEE0001FFF3FFF7
001BFFF2001BFFF0FFFC000D00090009000F
0005FFFFFFF0000AFFFFFFE6FFFC0015FFF5
FFF50002FFE1FFF1FFF50008FFFBFFE8FFF9
0005000C000E000CFFF30015FFFF0002FFF5
FFFB001A000400060006001FFFFF00170016
FFEF0002FFE5FFFA00000012FFE400050008
FFFBFFE70006FFF5FFE00011FFEDFFFB0000
000AFFE90011FFE3FFF400020005FFE1FFF3
000CFFE5FFE1FFF2FFF1FFFAFFF40001FFF0
0008000C000CFFF4000E0007FFFDFFE7000B
0012FFF00009000AFFE6FFFAFFEFFFE50002
0004FFFB0001FFF500180014FFFB00110016
000900060012000100110013FFF7FFFEFFFB
FFF90001FFF9FFFCFFF7001DFFF300180021
0003FFF1FFEE001A000DFFF5000F0007000D
FFFC0002FFFEFFE60008FFF6FFF6000F0005
FFE5000B0003000900080001FFF40000FFEE
FFF8FFFAFFF3FFEF00070002FFD7FFEFFFEC
FFF100120010FFEC0009FFECFFE8FFEEFFF6
0008FFF4FFF8FFE8FFF5FFF70003000F0005
FFFAFFF2000CFFF10002FFEDFFEEFFEFFFFF
0002FFFEFFF90008FFFD00070017FFFE000C
0004000E000F0007FFFB00030006FFF2FFFC
0015001C001D000AFFFE000A000600160009
0005000FFFF90009FFFBFFF9FFE9FFFFFFEC
000A00040003FFF5FFECFFF7000E00110003
000E001EFFF8FFF3FFFA0012FFFB000FFFFA
FFEDFFFC0008FFFD0007FFF9FFE4FFE5FFE1
0003FFF6000300030004000500080005FFF9
FFEDFFFC0001FFF900030007FFF1FFFD0000
0002FFFEFFF8FFEEFFFB00050000FFFCFFFE
0001FFFDFFF0FFEEFFFFFFF10001FFF50011
000BFFF2000B0014000C00280028000C0005
FFF7FFEBFFF6FFEE0004000A0002FFEBFFFC
001200130019000C0002FFEE000FFFFC0009
FFFB00000002FFFCFFF1FFEF00060004FFF7
00130002FFF20000000D000A0012FFFFFFF0
FFE70001FFEF000900150005FFF300040011
FFE0FFF7FFFF00040008FFF200020006FFFC
FFEFFFF2FFF20012000FFFF000080004FFF6
00180017001300130010FFFCFFF8000E0009
00040001FFED00070012FFE5FFFE0016FFEC
001300180006FFF3000600110012000D0004
0006FFF0FFF800020018FFF7FFF30000FFF8
FFFEFFF0FFF40002000600060013001C0005
FFF4000B00130000FFF9000700020002FFFC
FFF8000CFFF6FFF5FFE3FFFD000D0000FFED
FFFEFFF1FFF9FFF10003FFFEFFF5FFFD000A
000FFFFCFFFE0015FFF3FFFA0001FFFB0003
000B0006000E0008FFF9FFF3FFF8FFFC0000
000C002400100014FFFAFFFC000900140015
001100030029FFFFFFFB0015000EFFEBFFE6
FFFF000A000700010009FFF0FFE4FFF0FFF6
000CFFF9FFF8FFEEFFFFFFF50004FFEF0007
FFF9FFE7FFFDFFFDFFF4FFF7000D0002000D
FFFE0001FFFFFFF2FFEE000D0006FFE80003
0002FFF6FFF3000AFFF70002FFF9FFF5FFEF
0017001D0022001A000C000C0012000A000F
0014000A000FFFE4000A0006FFFCFFFBFFEC
FFD8FFE2FFDE0014000DFFFEFFF20001FFF3
FFE5FFF10005FFEE00160009000EFFFAFFF2
0005FFFA00020006FFECFFEBFFE50005FFFD
0001FFFF0001FFFBFFFAFFE8FFF6000D0006
FFF10001FFFD000AFFF0FFEDFFFEFFF00004
FFFDFFEF000BFFF0FFF8FFEFFFEAFFFAFFFD
FFF1FFFA000B0001FFE6FFE9000400010000
000B000B0009FFF7000B0005FFF8FFEE0009
FFFB0009000EFFEDFFFC0005000EFFFCFFFD
0016FFF8FFFD0002FFF6FFF80002000FFFF6
FFE400030007000CFFF80005FFF5000EFFF7
FFE3FFE7FFF70019FFFD000DFFF80010FFF9
FFE4FFDAFFE60024000AFFF200120000000A
00060009000200040002000FFFEFFFFBFFED
FFEE000BFFE8FFF4FFF3FFF4FFFB00060007
00230009000AFFEDFFEFFFFA000C00000009
FFF60002000E000FFFFFFFFC000E00010011
FFF6FFEBFFFC0008FFEC0008001400170003
0007FFE6FFFB00130002FFF8FFFAFFFBFFE3
FFFB0010FFF9FFF7FFF4FFFBFFFF00010010
FFF4000B0007FFF8FFFC000EFFFAFFF3000F
FFF7FFFA000D0007000100030003FFF0FFF7
FFF9FFFBFFFAFFFA000AFFFCFFFC0004FFF9
FFFFFFF8FFFAFFF7FFF700030006FFF70004
00020010FFFBFFF6FFFA00020003FFFB0007
00040002000EFFF50005FFF1FFFFFFF80001
0003000B0002FFFEFFFE000A000700080009
000300060001FFF5FFF5FFF2FFF1FFFAFFF5
000200000015000B000F0009FFFE000D0013
0001000B00080008FFFE0000FFFAFFFAFFEC
FFF60009FFFA0005000A00000007000E0010
00080004FFFEFFF50005001700000003000C
0005FFF50000FFF8FFF80005FFFBFFF8FFEE
FFF8FFF4000BFFFA0007000E0003000BFFFD
FFF40007000200080010FFF1FFFBFFF9FFFC
FFFDFFF7FFFB0017001EFFFBFFFD000C0006
FFFEFFFEFFF5FFFA000FFFF400080005000A
000BFFF7FFFD001800160016001C0019000C
0003FFF8FFEF0006FFF700060002FFFC0003
0006001200120011FFFB000800110005FFFC
0007000C000FFFFE00070004000CFFFFFFFB
0004FFFEFFFDFFFE0013001900040006FFFD
FFEDFFFDFFF8FFFC0007000BFFF50009FFF5
FFEBFFECFFF60003FFFA000DFFF2FFFAFFF9
00050006FFFBFFFB000F000B000AFFF70003
001000190003000CFFFF00090009FFFC0012
000F00060004001500090010FFFC00080000
000D00030008000B000000060013000E000A
FFEDFFFE0006FFF4FFFEFFF5FFF5FFF8000B
0002FFF7000D000EFFFE000D0010000F0015
00100008000E000100090008FFF2000F000B
000200100014FFFC0010000FFFE80002FFF8
00020000FFED00020014FFFFFFF1FFFF0018
FFFD00030004000CFFF20009FFFC00000014
000D0016FFFD001600100005000A0015000E
0000000A0008000A0006001B000B00210006
FFFD0010000D000800110010FFFDFFE40005
00120002FFE6FFF70018FFFEFFFF0008001B
000A00140014FFF8FFF4FFFEFFE9FFFE0006
FFF6000D000E00000004FFF4FFFC0005001A
FFE9FFFCFFE5FFECFFF9FFE9FFFFFFEF0017
0008FFE5FFE3FFF8FFF2FFF3001D00140006
00080001001600140019000D000DFFFE0012
FFFF00060004FFF9FFE8FFDBFFF3FFF2FFFA
00020018FFFE001000260000FFF200170001
FFFBFFFB000AFFF6FFF80007000000160013
0000FFF5FFEEFFFC000CFFF7001200150005
0018000E0004FFFE0005FFFA0002000E0000
0010FFF8000A0013001900010008001C0015
0008FFF90007FFFB000CFFFE0009FFF40011
FFF6FFF6FFD7FFF4FFEEFFEC00180007FFFB
FFFFFFF0FFF2FFFAFFDAFFF30007FFF7000F
0009FFF6FFFD0007FFFBFFE60003FFF7FFF9
0006FFFC0013FFFD0000FFD9FFF5FFFD000C
000C00170002FFFA001F0029FFF3FFF40006
FFFD001EFFFEFFF3000C0015FFF5000A0014
0000FFFDFFFDFFFAFFF70006FFF00004FFF5
00050001FFF2FFF7FFE9FFEBFFF8FFFB000D
FFEAFFEEFFEF0010FFF1000C000E00150006
0004FFEEFFFDFFF7FFE4FFD4000AFFFC0006
FFFD0018001D00030008FFF5FFE80006FFF9
FFFC0002FFF4FFF8000C0003FFFA0001000B
FFFBFFFBFFFEFFFFFFE6FFFD0009FFFB0018
FFE9FFF600060004000A0001FFF10013FFFB
0005000D00160003FFE3FFF800210005FFF8
FFFBFFF4FFFF0029FFFD0001001BFFEF0003
0008FFEC00040000000000140015FFFB0011
000FFFF7FFEC0009000200010004FFFBFFFB
FFE2FFF5FFDCFFF70015001EFFEF001E000D
FFFA00050006FFEAFFF60009FFF6000C000D
0012FFF0000A0017FFFCFFF7FFFF000C0019
0019001F001DFFE80002FFF5FFFCFFF90008
FFEFFFDE000DFFFEFFF80008FFE7FFEB000B
FFF60016FFED000C001F0001FFFAFFFFFFFA
0008001A00230001000A001DFFFE00030013
FFEAFFEDFFE80007FFF3FFFC0000FFFBFFEF
0025001C0021FFF1000AFFE7001E0014FFEF
FFED000CFFF40012FFF0FFEC000F0009000B
00180003FFF40024FFF7FFFBFFFE00100028
0019000BFFFC00080007FFFEFFEBFFDEFFE8
0015000DFFF9FFEB0007FFEDFFE6001B0012
0001FFF30002FFE0FFEC000EFFE2FFD7FFF3
FFFFFFFFFFF10014FFF8FFF800170001FFFE
FFFCFFFA0006FFFC0013FFFFFFF7FFFF001A
000CFFE5FFF4FFF8000C0006FFF9FFF20013
FFECFFF6FFE0001B001CFFFE0004FFFDFFE4
001A00000018FFEA000A000A0022FFFC001C
00150005000900020006FFF4000200160003
000C0006000BFFD7FFF7FFF90027001EFFFE
002100200031000A00010008000EFFF2FFF5
0007000DFFF100060006FFEC00030024FFF7
FFD4FFDEFFF00026FFFBFFF4FFF4FFDC000A
FFF600020003FFF30011FFF40016FFF70001
FFFDFFEEFFEA0012000C0004001300070008
0019FFF3FFF6FFF80000FFEFFFFA0002FFE7
FFE7FFF3FFF5FFFF00160007000A0013001D
FFF3FFF6FFFF001A000CFFFD00180008FFF3
FFF7FFF6001EFFFBFFFAFFDFFFF9FFE9000A
FFE6FFEAFFF0FFF4000AFFFCFFFF00130019
FFF3FFFF000100090009FFF3002700090012
0002001D001900120004FFFFFFE6FFFD0004
FFF7000DFFEAFFFEFFE4FFE8000700050001
FFF80015000EFFEA0000FFFFFFF9001D0026
0004FFDCFFED0020FFED000B001800240004
FFEBFFF4FFDFFFEBFFDEFFF6FFF4000EFFFB
FFFE0001FFF50005000AFFF90008000C000A
FFFA00190007FFF5FFFE000100150023000F
0017001200130011FFE7FFFCFFFEFFEDFFE6
000D000800030017000F0001FFFAFFF5000B
00170017FFFCFFF300180014FFEF0010FFF9
FFFBFFF9FFEA000C000FFFFAFFFFFFFFFFF3
002000020009FFEBFFE4FFE0FFE7FFF00002
0014FFF00006FFF3FFED00100002000F001A
FFEAFFE5FFEA0008FFF00006001F001E0018
001BFFFEFFEEFFFFFFF5000BFFEBFFE80002
000D000EFFFDFFF200070005FFE8FFFE0015
00030008000FFFFAFFF8000F001000110006
000D000C00180000FFF3FFDAFFEFFFF20008
FFFAFFF3FFF4000C001CFFFCFFF1FFFFFFFA
0005FFFC000AFFFEFFF8001100080007000A
FFEEFFFC0012FFF100150010FFE9FFE80005
FFE9FFEAFFE0FFED0002FFF3FFF7FFFD0018
FFFAFFFCFFF0FFE80006000100120018FFFC
FFFB00020014FFE3FFE1FFF0FFEE00040011
FFF4FFEDFFF40005FFFCFFECFFE5FFF00004
000F0017000200260027FFF60005000D0019
FFFF0004FFF0FFF2FFFAFFE6FFEE000B0000
00280026001BFFEDFFEBFFFCFFEB0006FFEA
00160016000DFFE5FFFD0009FFDAFFD5FFDC
FFF3FFF8FFF1FFDF0006FFFB001400210016
00210009FFF6000E00090010FFF7FFE8FFF8
000200000023000600030002FFF4FFF1000C
000900080008000DFFF90005FFE9FFE70012
0025001C000DFFF8000D00040017FFF0FFF3
FFE20004FFFEFFFAFFF2FFF30007000CFFF5
000500070007FFF5FFE6FFDCFFE5FFCCFFFE
00090018FFE3FFEDFFF6FFF3FFFEFFF8FFFA
000B000C0014000800030007FFFDFFDEFFDE
0017FFFC001B0019001800150009FFFBFFFA
FFFF000F0017FFF9FFE0FFFA001B00070021
FFFAFFFEFFF0000B00220012FFFC00050001
0007FFF90013FFEAFFEE00030006001A0018
0004000BFFFAFFF10002000200240017000E
FFFF0004FFE6FFF1FFF0FFEE0015FFFB001A
FFFEFFEBFFF4FFF7000E000B000800060003
FFE3FFDAFFDFFFF3FFEBFFEA00290029001F
0006FFF3FFFA0010FFE8001C00170005FFFD
00040006000BFFEF0018FFF70003FFFAFFF5
FFFD0007001C000200060011FFF6FFFD0013
FFF4000AFFE4FFE60008000C00060007000A
FFF70012FFF200030017000B001B0018FFFF
FFEFFFD6FFDE0009001600160022FFFAFFF7
FFF3FFE3FFFC0006FFF70013000100150001
FFE700000014FFF5FFF6000CFFF4FFE70013
000B00100007FFF9000CFFF8000B00010007
FFEE000EFFF6FFCEFFE5FFF6001B0018000C
FFF10003FFF900020006FFF0FFE7FFFEFFF4
FFFB0002FFF2FFF4FFF0000F001600110007
FFF0FFF8FFE300160001000B00110003FFF6
000100010012FFFF000B0010FFF5000EFFF9
FFF2FFEFFFF40006FFF3FFF1000AFFF0000E
FFFF00090000FFF90007000E0005000E0012
FFF7FFFAFFFDFFFE0003FFFFFFEF0004FFF6
0000FFF1FFEDFFEFFFF2FFF3FFF5FFFAFFF8
001000100013FFFB00020005FFFD00000010
FFF5FFF8FFF8FFEDFFE9FFE7000EFFF6FFF8
FFFF0004FFF8000600000000FFFDFFEF0004
000CFFF1000600030002FFFF0008FFF4FFFF
FFFD0004FFEFFFF1FFF8FFEC000200040008
00020007FFFCFFFE0000FFE8FFF2FFF20005
00030010FFF4000300090010001D000B0001
FFFF0006000800010013000DFFFDFFFC0006
000FFFF6000500050010FFFA0017000F000D
FFFCFFF50012FFF4FFFB000DFFFA00050016
FFFC0001FFEDFFECFFEDFFF5FFFBFFF4FFF4
0001FFFE0001000C0011FFFBFFEEFFEC0003
0006FFFBFFF00007FFFFFFF7FFF8FFFDFFFC
0012FFEE00090011FFFB00030009000D000A
FFFE0003FFFBFFF3FFF9FFFCFFF0FFFF0008
000D0006000C0001FFF3FFF2FFF40003FFF2
FFF30003FFF1FFF5FFF9FFEEFFF9FFF8FFF0
FFF000050013FFEFFFF4FFF7000100030003
000A000EFFFF000E00140016FFF400050002
000000100008000E000D000CFFEE00050009
0010FFF6FFF9000EFFF500020007FFF10003
FFF7FFF4FFEEFFFAFFECFFFDFFFCFFF9FFFA
FFE8FFF1FFF0FFEBFFF3FFF2FFF7FFFFFFEE
FFFBFFFC00100007FFF7000E0009FFFCFFF0
0003000200090005FFFD000DFFF90006FFFC
FFFBFFF7FFF600010004FFF6FFECFFFD0008
FFF6FFFCFFEE0008FFF5FFF200080001FFFB
FFE7FFF9FFECFFFB002D001A0000000D0000
000C0004001B0016000D0018FFF4FFF5FFFF
FFF8FFFB0007FFDF0015001CFFFBFFEFFFFF
FFDFFFE8000FFFFBFFEAFFECFFF9FFE5FFE8
001100040015FFEFFFD6000C0012FFF5FFFB
000B0010FFF80002FFE6FFF0FFFC000F0010
000000110002000A0010FFE3FFF20010FFE7
FFFBFFFBFFFF0005000B00060015FFFE0018
FFF0001BFFF6FFFE0015FFE8FFF10006FFF5
0009000E002C0016000A0020FFFBFFF80014
0014001EFFEA000C00170007FFED0010FFF4
0003FFF1FFF0FFF4FFF7000400160021FFFE
0013FFFC0000FFFAFFF10005001100210004
FFFD000800160008FFF3FFE9FFFAFFF10004
000E0003FFEA000DFFFBFFFBFFFB0002FFEF
00050012FFEAFFF10009FFF800070017FFF5
FFF7FFF8FFFD00180029000EFFFC001CFFF8
FFF6FFECFFE20003FFFBFFF700150010FFEF
FFE7FFF4FFECFFFC00130018003700230012
0008FFF1FFE20009000FFFF5000DFFFFFFDE
001A0006FFFE000AFFFC000FFFF0000C0003
000D000A00160018FFF100010012FFF20010
FFFA00060006FFF4000A00220004FFF4000E
FFE5FFFDFFEB00190003000A00050010FFF2
FFEDFFDEFFEFFFEB0010000CFFFFFFE4000C
0003FFFF0001FFFF001200180005FFFBFFF1
000800100025000B0012000FFFFC00060014
0008FFEAFFFB0004FFFB0005000BFFE80011
FFE6FFF60011FFEBFFF4001800080012FFFD
FFE50000FFE4000EFFF9FFF100060007FFFA
0010FFFC000A0010FFFE000C001F0002FFFF
FFF5000C000C000AFFFCFFFEFFF300040005
FFF4FFFF0002FFEFFFFCFFEB001A001A001D
FFEA0008000700070007FFFD000FFFF6FFDA
FFF9FFFCFFFA0004000EFFF60001FFF90010
FFEDFFF0FFF8FFFA00060008FFF5FFF9FFFB
000400080014FFF7FFFEFFF4FFF60006FFEF
0012FFF7FFF1FFFAFFECFFFDFFE1FFF5FFF4
0011FFF8000A0002FFFF00120005FFFA0014
0013000F000A000600220000FFF9000AFFFF
0008FFF2FFF1FFFB000100030004FFFBFFF7
FFFFFFFD00010010FFFE000B001900170014
0010FFFD00050012FFF6000C0010FFFFFFF9
000E000F0005000FFFF2FFFB000C000C000F
000900080005FFE3FFF0FFDEFFFCFFFEFFE2
FFF4FFDEFFF0001B00100002FFF7FFED0002
FFFCFFF6FFED00040000FFFB001B00110017
00060013FFF7FFF9FFFC0019FFFF0006000A
FFF500080007FFF20010FFFE000FFFFA000B
FFF7000C00190000FFFE001E001000160018
FFF0FFF2FFF2FFF5000EFFFE00120012001F
000BFFF0000FFFFA000F0008FFF90004000D
0013000DFFF9000CFFFC0004FFFC00070015
000800130009FFFDFFF8FFED0006000CFFE9
0010000FFFFAFFE3FFF0FFF4FFF7FFF0FFE8
FFEBFFEC0006FFFF0004FFF30002000D000F
FFE8FFF0FFFD00090007FFFC0003FFFF000F
FFF5FFFC0004001D001A0011000DFFF7FFFF
FFF6FFFD0008FFF1FFFEFFF00009000B0000
FFF50001FFF4FFFA0009000B0005000DFFFB
00010004FFFFFFE7FFF7FFFAFFF50012FFF3
FFE80007FFF00005000AFFFC0003001A000D
000900070004000A000500120002FFF9FFEB
000FFFFEFFFFFFFF001FFFFF00030016FFFA
FFF6FFF6FFFB002B0016001C00190011000F
FFE5FFF100040005FFF4FFF1FFFB000AFFEE
0012001AFFFEFFD9FFF8FFF4FFFF000D0001
FFE7000F0003FFEAFFE9FFDBFFE6FFE0FFF3
FFFE00020001FFF9000C0004FFEC0006FFFE
000700050005FFEF001000150008FFF30006
FFE70000FFF3FFE8FFF70004FFF0FFFBFFED
0009FFFE00020002FFE9FFF7FFF6000DFFFF
FFEB0008000E001700050007FFF60004FFF8
FFFB00170007000700170014FFED000E0009
FFF6FFF4FFF9FFFEFFF8FFF7000C00000002
FFFEFFF6000DFFFFFFFBFFFAFFE800070017
00150017000A000C00000001FFF30022002F
FFF7FFE4FFE8FFECFFF9FFF5000DFFEBFFF5
000700210017001700080004FFFCFFF70015
FFF8FFF9FFFCFFEE0005000AFFFBFFFDFFE1
00060000000FFFF1FFFF0001FFEEFFEA000C
FFFCFFFAFFF2FFF1000EFFF80009000B0012
001000060014FFFEFFFF000DFFF8000A001A
0007FFEEFFF3FFF2000B0001FFF500000011
FFF30005FFFF0014FFF9FFE40003FFF7FFFB
FFF2FFFCFFFF00010005FFE9FFEC00010006
001C00190005FFFCFFFA000200040018FFFC
0003FFE7000DFFFC00130003000500110007
FFFB000CFFF7FFE80002FFFA00060011FFFC
00160012FFF4FFEBFFF5FFF5FFF10002FFFE
FFF1FFE4001400040011FFE4FFF2FFFC000F
001C0008FFF90016FFFCFFEFFFE8000CFFDC
0004FFFE002400080008FFF8FFED00000004
000C001C00070028002B00140024000A000E
FFF800030011FFFDFFF10012FFFCFFFD0010
FFF7FFF8000D00050015FFE7FFFF0011FFF7
FFF500250018FFF5FFF8FFEAFFD3FFEEFFEB
FFEFFFED001DFFE2FFF2FFFF00040009000A
FFF4FFD8001CFFFBFFF10001FFE1FFE6FFFD
000FFFF50002000CFFDBFFEDFFFBFFF0000F
0000FFFB00060017FFE60018FFE1FFDD000A
000CFFFDFFFCFFFE0000FFE0001AFFE8FFF7
FFEDFFF9FFFEFFF30010FFFDFFE5FFF70018
FFF8000DFFE50004FFEFFFF3FFFBFFDD0006
0012000F0016FFF40003FFFC00070002000D
00130004001BFFE9FFE70006001D00040001
FFFE000FFFEF0002FFFBFFF3FFF30013FFD8
FFFF0003FFFB0009FFFF0009FFE60001FFEA
FFE5FFFB0006000BFFFD0014FFF60001FFF8
FFEF0007001100010004FFF8001E001EFFF9
001AFFF2FFF2FFEEFFE5FFE200050017FFFA
FFEB000AFFEEFFE20002FFF1FFF800240005
FFECFFFCFFDEFFF8000FFFE7FFF900210005
000EFFEAFFF9FFFDFFF8FFE70008FFF2FFF7
0016FFFE0009000AFFF5000B0005FFE80000
FFF3FFEDFFE4FFE20002FFEB00150006FFFD
000FFFFA00080005FFE6FFDDFFFAFFF9FFF8
FFF10003FFFD000E000900000024FFF70011
FFFDFFF5FFF60004FFEF0004001200010016
000FFFEF0002FFECFFFFFFFBFFF7000AFFE7
FFEFFFFC0000FFECFFE6FFFBFFF9FFE9FFFD
FFECFFFBFFEEFFF90005000DFFF4FFF3FFFB
00120004000FFFF900080009FFF20005FFFA
00110001000D000D000100040000FFF40010
FFFAFFFEFFF6000CFFF3FFF00026FFF90018
FFFC001700010008FFFE00130001FFEE0007
FFF8FFF2000D0005FFEF0014FFF8FFF9FFF8
000D0005001C00070002001900210002000B
000200030016FFFB0000000AFFDFFFECFFFD
000F001C00230000FFF9FFE800050012FFFF
FFF0FFF50002FFF10012FFF70016001CFFFA
FFEAFFEDFFFF00000004FFF7000FFFF6FFF3
000DFFFEFFFEFFFA0013FFEBFFF5000FFFF3
000BFFFFFFF2000F000B001CFFFEFFEE0003
FFF900030008000900050008000EFFF0FFE0
FFF1FFECFFF70004FFFF0001FFF60005FFF2
000F0005FFF7FFFF0002FFE4FFECFFF60008
000CFFFFFFEC00040001FFE8FFEEFFFD0000
0004FFF5FFFFFFFC0004FFFC000E000D000B
FFF5FFF7000C0016001400120014000A0018
000700020007FFFE000E0014FFF5FFF7FFFF
FFFFFFFFFFF20008FFEAFFEF0030FFF20008
FFF8FFFFFFFCFFEBFFFFFFEF0001000A0007
0005FFFEFFFA00080003000D0012FFECFFFC
FFFCFFEFFFE6FFFCFFFCFFF00004FFE40015
FFF6FFF700010004FFF70014FFF300010011
0031000BFFF90003FFE7FFF0001CFFFCFFF4
0008FFF8FFFBFFFBFFEA0007000CFFE6FFF5
FFF2FFF3FFF3FFFF000F001DFFEE000D0007
0009FFFD0001FFE800040009FFFA000CFFFA
FFF0FFF70001FFF4FFF60001FFEFFFF6000C
FFFA0002FFFFFFF3FFFA0004000F0001FFF8
0002000A0007FFD8FFEBFFF400130015FFFD
FFF40009FFF2FFE7FFF8FFE90015001D0005
0001FFF4FFFF0002FFF1FFFFFFF90007FFF3
FFF7000AFFFC00070003000BFFFDFFFB0004
00080004FFFA000C00120012FFDEFFE5FFFD
FFF6000A0018FFF5000D000D00080001000C
000BFFFA00080009FFF1FFEF0017FFFBFFF4
FFFD00040003FFF40010FFF3FFF400060008
FFE7FFF4FFF8FFF9000EFFF1FFEDFFFBFFFE
FFF20004FFF7001B000F000C0007FFF60008
FFF10009FFF3FFEC0003000AFFE5FFEEFFF6
00060014FFFBFFE70004FFF30002FFF2FFF7
00060018000600020008FFF6000CFFF1FFF7
000BFFF6FFF20009000D000900040001001B
000A00130005FFF00006FFF7FFFD000C0012
0009FFF30002FFF2FFF5FFE1000C00040004
0006000600190006000B00170004FFF6FFF2
FFF5000000100010001100020012FFFE0008
0001FFEE0001FFFF000F00100003FFFAFFF9
0006FFF4FFF70008FFF10013000700100021
00070004000AFFF8000A000E0001000B0011
0006000A000A000300080000FFE8FFF80010
0014FFF5FFFCFFF9FFF800080003FFF90003
FFFFFFF8000BFFF10018001BFFF7FFF70013
001E001A001A000DFFF4001200160007FFFC
0002FFF6FFFD0008FFF5FFE5000FFFF9FFF2
000C000300060003000800020000FFF2FFF9
0008FFF4FFEB00050011FFF10001FFF4FFFC
0005FFEDFFFCFFFFFFF4FFF90006000A0004
FFF4FFFB0002FFF8000700100001000B0004
FFF8FFF8FFFC000E0000000DFFFA0005000D
FFFA001500110013FFF60011FFFFFFF40010
FFEF0016FFFFFFEE0000FFFDFFD9FFF0FFDC
000A000D001DFFF4FFF0001CFFF5FFDEFFF1
FFECFFFD000EFFFCFFF2FFECFFF70010FFF4
FFF8FFFF001DFFEC00100008FFE5FFED0003
FFF4FFFB000B000D000E0001000300110025
FFF20006000EFFFDFFFEFFF3FFFAFFF0000E
FFEFFFF1FFF1FFF80005FFF7FFF50001000F
0006FFF500160010FFF3000B0000FFFBFFF0
000CFFFFFFF4FFFB000D0011FFFEFFF6001A
FFF800080004FFF5FFFFFFF9FFF5FFEE0006
000CFFF3FFF6FFFAFFED0000FFFE0025001B
FFFCFFFEFFFFFFF60003FFF8000200010009
00070001FFF3FFF4FFF5FFF7001000120015
FFFAFFF900070001FFF00013FFF7000C0015
FFEB0009FFF4000FFFFF000BFFF7000AFFF3
FFF8000BFFFFFFFB000FFFF60004FFFBFFFC
001D0008FFFE0001FFEEFFF9FFF8FFEA0009
00040000FFEB00050009FFFA0002FFEDFFF4
FFFD0002001100010009FFF2FFF60000FFF0
0007FFFC00050008FFFE00080018000B0002
FFF5000DFFFE00070010000AFFDE00030013
000CFFF90004FFE2FFEEFFE9FFFEFFFE0003
0001000C000C00000008000CFFF0000AFFFC
000A000A000EFFF90002FFF1000A000DFFF6
0007FFF700070008000AFFFCFFFEFFE6FFE8
0008FFF7FFFEFFF1FFFFFFFFFFFE0001FFFD
FFF50001000EFFFD0011FFF8FFF7FFF7FFF3
00080014000FFFECFFFAFFF20001FFF1FFF5
FFFAFFFA0004000600050014FFFFFFF60002
0002FFF9FFF4FFEE0006FFE9FFF8FFF40010
0005FFF800020000FFF7FFEE0000000BFFF7
FFFCFFFDFFEB0005FFF8FFFE000900140008
0011000DFFE90003FFEAFFEC00020021000A
0008FFFDFFFAFFF7FFF4FFE7000400110007
00030012FFEBFFE90006FFF5000100100005
FFFB0008000EFFF40004FFF2FFF800100006
0001FFFA000400000009FFFFFFD7FFDDFFED
000EFFF60002000C00030003000800100018
FFFF00040017FFF2FFFDFFFC000FFFF8000F
000EFFFAFFFDFFF0FFF4FFF90005FFFAFFFB
00030002000300080013000500010012000B
FFFF0013000EFFF7000C000AFFF2FFFDFFF0
00180002FFFAFFFD0010FFFA000EFFFB000C
0013000E000D000A00020005000E0007000F
FFFFFFFD001600120007000C0001FFF80004
0001FFECFFEAFFF7FFF8FFF4FFFB0007FFF5
FFEC0003FFF80001000F0005001300010001
FFFCFFF8FFE9FFF80008FFFA000F0007FFF9
0004FFFCFFFDFFF8FFF1FFFFFFFC0005FFF6
FFF70007FFFDFFF000030001000A0009FFF0
000400040008000900040001001200030006
000DFFF1FFF1000EFFF9FFFA00030007000E
FFF9000AFFF8FFFF000B0001FFED0008FFF5
FFFEFFEEFFF4FFEB0006FFFBFFF6FFEDFFF1
FFDFFFF20007FFF8FFFCFFEC0006FFF6FFF5
000A0002000EFFEFFFFC00190006000E0001
0005FFF0FFFFFFFDFFF7FFFD000A0002FFF8
0000FFF3FFFC0000FFFD000000100002000F
FFDFFFE3FFE80003FFF9FFEFFFFA0004FFFD
FFF4FFFBFFFFFFFFFFEFFFFF000B0010FFFF
00110000FFFAFFFD0009000000210017FFFE
001200030017000AFFFE0013FFF400020000
FFF8000CFFF1000BFFF9FFF70003FFFB000A
FFECFFF4FFFA0004FFFC00130010FFFAFFF5
FFFB000D0001FFF9000A000300150003FFF6
000D000500050007FFFBFFEAFFFA00050001
FFF8FFFDFFFE0001FFF7FFF20018FFFEFFFB
001500150018FFFD00140010000C000B001A
FFF3000A0007FFF6FFF7FFF6FFF2FFFDFFED
FFFE000F00010000FFF90010FFFD000F000A
FFF2FFFFFFFAFFE40007FFFEFFF6FFFAFFF9
FFF2000AFFFDFFF00001FFF40008FFF4FFF1
0019000A0005000900140004000E0003FFF7
FFFC0003FFE3FFFFFFF80008FFF7FFE5FFF9
0006FFF40006FFFA00020000000F0008FFFF
FFF6FFEC0003FFF9FFE90001FFE5FFE0FFEA
FFEC000A0001FFEBFFDDFFE5FFE9FFF3FFF8
FFF7FFF80002FFFAFFF80016000C00080019
FFE3FFECFFEEFFFFFFE9FFEFFFF40000FFF3
FFF0FFF2FFFB000DFFF1FFFBFFFAFFEF0008
0011000B0009000A0016FFF6FFF20006FFEC
0020FFFEFFF90000FFFC0009000B00050007
FFF60005FFE8FFFC000900050008000E0002
FFF4FFFFFFFDFFF5FFF10005001F00180001
000C0005001AFFFDFFFC0000FFFA0008000A
FFFAFFE9FFF6000000010012000BFFF4FFF9
FFFF0000000EFFE1FFF80008FFE200080004
FFF000100000FFF0FFEEFFFDFFEC000CFFF1
000AFFF80011FFF6000CFFEDFFF100010006
0003000AFFF3FFEAFFFBFFE8000E000A0007
FFFE000C00130010001400020002000A0024
FFFD00020003FFF1FFFB00070003FFFAFFE7
0017FFF6FFF8FFF8FFFE000700060005FFF7
00140004FFF40010000DFFFBFFF900180000
FFF7FFFFFFFEFFF8000E000F00070011FFFD
0010000A000B0014001B0008FFF6000C000A
000D0010FFFFFFEEFFFFFFF5FFF4FFF80009
0016FFF0FFF60003FFF1FFF0FFEEFFF1FFED
0003FFFCFFE7FFFA0006FFF9FFF9FFF10005
FFEBFFF8FFFEFFFBFFF70004FFE8000BFFEB
0011001400080000001100140001000E0017
000F0013000700080018FFFF0009000C0000
FFF2FFF7FFFE000000120014FFF4FFF5FFFB
000CFFF0FFEEFFFEFFF3FFE80014FFFCFFF5
000EFFFBFFF3000B00230028FFFB000D0014
FFF0FFE9001100050012FFEFFFF40001000F
000FFFEF000EFFF0FFFB000DFFFD0011FFF7
FFF4FFE9FFFC001D0004FFF5000500120021
FFECFFEA0018FFFCFFE4FFF5000BFFFAFFF9
FFEF00190002FFF8FFE1FFF5FFEDFFE9FFE1
0003000BFFF2FFE4FFFBFFF8FFF4FFFBFFEB
FFEEFFFF0012FFFCFFF50001002C001B000D
0003FFF50000FFFF001E0016001200020016
FFD8000A0021FFF4FFEF0013000BFFFEFFDA
0004FFF40004000C0007FFFA000EFFF5FFF9
000A00160012FFF9FFEFFFFAFFE8000FFFEF
0019FFF6FFE0FFEEFFFBFFDA0007FFE2FFE5
0002003A0017000B00080004FFE5FFE50005
FFF30015000DFFF4FFFB001C00160003FFF0
FFF2FFEFFFFDFFF7FFEFFFF600120022FFFB
0017FFFFFFE80009001D000E002900160018
FFE9FFFC001EFFE8FFFDFFF4FFF60020FFF2
0007FFE3FFF0FFE3001A0001FFDEFFF80016
00120007FFFAFFEB0006FFE7000200000003
FFF6FFEEFFF90001FFF7000F002E0019FFE6
00050007FFFD001700080003001C0012FFF2
001BFFE7FFD70004000A000000180007FFFF
0002001D0015FFECFFFAFFF4001B0006FFEE
001700240027FFF100040007FFF0000AFFF6
FFF20015002D0006FFE5000B0020000BFFEC
FFFB00080016FFFBFFFE0008000E0018FFE0
FFFBFFEF000A002D0023001800360010000E
0013FFFBFFF1FFF9000E0005FFFEFFEDFFF1
0006FFF40009FFF5FFFEFFFB000FFFF0FFF8
00140000FFFEFFFDFFED0013000BFFFAFFFC
FFFDFFFE0007FFF20003FFF60009FFE9FFD8
00150001FFEAFFFB0005FFFEFFFB0006FFF9
FFF00003000BFFFCFFE5000B0005FFF80004
000AFFE80018FFE7FFF80010000D0018001C
0005FFF8FFF20022FFFEFFF6FFEFFFF1FFE7
0001000B0004FFF0FFF6FFFF000A000EFFFE
0009FFE5FFE7FFFDFFFB000AFFF40004000B
0006FFEE0007FFFD0006FFF60010000EFFFF
FFFC00060008000EFFF8FFEEFFFDFFFF0008
FFFC00010000001AFFF3FFE9FFE5FFFBFFEF
FFFA0008000E000600080015FFF2FFFB000C
000900050011FFFB000AFFEDFFF6FFEDFFFA
FFF4FFE2FFF80002FFFAFFFCFFFD0026000A
000600070000FFF8FFFF0020FFF8FFF9FFE5
FFF10000FFF9FFECFFF8FFFDFFFE00190014
FFEEFFE3FFFFFFFA0008FFF7FFF8FFF7FFF2
0004000AFFF60001FFE6FFFB0000FFFE0009
FFF8FFF40006FFFC0015FFFAFFFD000B0003
001600040003FFF800010000FFFDFFF7FFF0
FFF70016000FFFD2FFEA000100150005000C
0005001000080005FFE5FFF10005FFEBFFFD
FFFFFFF5FFF80008000F000EFFF300100007
000AFFF400040009FFE9000EFFE8FFEA0002
FFF4000F0004FFF10005000700090008000C
0003FFEE0000000AFFF7000AFFF600230011
FFF3FFF2FFFA000AFFE7FFF000040018001B
0004FFF20007000FFFF80001FFF3001B0026
0008FFF2FFF90010000DFFFA000000070002
FFFF0001000E000200020008FFF800090006
FFFC000BFFF6FFF0FFF9001AFFF3FFDAFFF9
FFF1000C000BFFFCFFF30004FFF30000001C
FFF70009000FFFF60004FFF7FFF70007FFED
FFF900120010001300080003FFEC0001000C
FFEFFFF5FFF3FFE9000300140038002C0019
00100010001B00050025FFE6FFF6FFE5FFE0
0005FFFE00120001FFFDFFEEFFE9FFF1FFF2
0009000D000FFFFC0006FFED0007FFFD0003
FFF000140014FFE3FFEEFFD80006FFF2FFE7
FFEE000FFFF8FFF8000D000BFFECFFF40005
FFF50002FFF0FFE60013000FFFFDFFF7FFF9
00020008FFF200030004FFF9001D0010002A
FFF40016FFF0FFF6000C0000000AFFEFFFE9
FFF9FFF6FFDFFFF0FFECFFEE001500040010
FFF100100016000A0010000A00020008FFF6
000F001E00120012FFF3000AFFFF0001000C
FFFDFFEFFFF0FFF20009FFEAFFE9FFF9FFF4
FFDFFFE6FFFB00000024001D00050010FFF4
0009FFF2FFED000000020009001F0022001C
FFFD000CFFF20010001500090004FFE0FFDF
FFFDFFF300070002FFE60009000B00030002
FFEF001D00040016FFFF0010FFF80014FFFB
FFE5FFE2FFD2FFD2FFE7FFEA000A0010FFF1
0007FFFBFFF1FFEF0008FFF2FFF9000AFFF0
FFFC0002000B0010001DFFFFFFEB00020015
000CFFEBFFF9FFFF0022000C0008FFF4FFF9
001400110011FFFA000BFFFC000BFFE5FFE7
00020001FFE000180006FFE8002B00330019
FFE4000CFFF80012FFE7000D000F0011000F
FFFEFFFA000D00240018FFF700050026001A
FFEDFFE9FFFC000DFFF200110012001BFFFF
FFF7FFF60012FFF9FFFBFFE7001CFFF70005
0010FFF6FFF6FFE4000F000FFFECFFE50008
FFE1FFFB000FFFE2FFEAFFFA0017002C001C
FFEEFFE2FFE400120010FFE3000B0018FFF5
FFF1FFFCFFFA000100000009FFE5FFFD0018
FFFA0000FFF900080006FFFD0002FFFE000A
0002FFFBFFF8FFF7FFFEFFFFFFF1FFF1FFF4
000D00060000FFEEFFFAFFF6000F000C0018
FFF80001FFF7FFF9FFF8000DFFF40006FFFE
FFFB0000FFF8FFF60005FFF50003FFFC0013
FFFDFFF0FFF6FFFFFFFF0006FFFE0007000B
FFFC0005FFFF0004FFF4FFFAFFF30014FFF8
FFF7000B000C00030003FFF6000500040004
0006000DFFFDFFECFFF9000EFFFAFFEF0000
FFFAFFFE00030002000C0017FFF6FFFEFFF9
FFFC000B0003000CFFFF0006FFF9000DFFEB
0001FFFA0006000D0004FFFC000400080008
FFFC000F0012FFF9000F00130000FFFE0002
FFF4FFF5FFF2FFFCFFFCFFFCFFFC00040009
FFF5000E0007FFEF0007FFFAFFF30004FFED
0009000600040001FFFD00060006000CFFF7
000B00130007000E0000000900020015000C
FFF10006FFFFFFFF00070007FFF10007FFF4
000A00020014000C001000080026001D0025
FFF9FFFD0003FFF800070005FFEFFFF8FFFD
FFFBFFF50005001000130013000C000B000F
000AFFF90005FFFEFFFEFFFBFFFDFFFE0009
FFF5000000100002000D0004001100070000
0003FFFE0009FFF5FFFEFFF3000400130003
0009FFEFFFFEFFF90004FFFB0009FFFE0011
00120012FFF00009FFFC000100030014FFFA
000800010008000D0017000F001000120005
0002000AFFFE00050005FFF2FFFCFFFEFFF9
FFED000CFFF6001000120018FFF9FFF6000F
FFFAFFF4FFEEFFEBFFEEFFF10007FFFB0004
FFF9000DFFFE0010FFFF0014000A00010000
FFFDFFECFFFFFFFE000B00000006FFFEFFFE
00180012FFFFFFF600050008000000000009
FFFE001800150003FFF00012FFF5FFF8FFF7
FFF10001000E0004FFFB0022FFFFFFFC001E
000AFFFD000CFFF0FFE5FFEA0004FFF7FFEB
FFECFFF8FFFFFFE9FFF80003FFFB000C000B
001EFFFD0014FFF50006FFED0005FFE0FFE4
001B0013FFEBFFFBFFF80000000A0008000C
FFF1000900000001FFF0000FFFFAFFFB0015
FFF90005FFE9FFF3FFF0FFDF00210005000E
FFE7FFEE0015000300070017000A00110013
0016FFFBFFFAFFFAFFF4FFF2000FFFEBFFEF
001DFFFB000A0003FFF4FFFDFFF2FFF6FFFA
000400070007FFEE0007FFFE0006FFF6001B
00110015FFEB00050019FFF800190015FFF2
00070011000FFFEF0004001EFFFC0006FFFE
FFF1FFF1FFF6FFFCFFFAFFF0000BFFF40010
FFF6FFFDFFEA000AFFF8FFF2FFFC000E0003
0014FFFB0005FFF900130002FFFDFFFD0000
FFE3FFE6FFE4001000040011001300180004
0003FFF0FFEF0008FFEEFFE300110012FFF9
FFFB000B00090000FFE9FFE10008FFE4FFEA
0006FFFBFFFE0017FFF500000010FFF2FFFD
FFFEFFEDFFF60016000EFFF0000E00050014
00060018FFF20018001AFFFB00110010001C
0011FFFB0003000A001E0014FFEBFFF70025
001000010011FFFC00000017FFF8FFF2000C
FFFEFFFA0005FFED0001FFF2FFFDFFFCFFEA
FFFFFFF50002000300000002FFFDFFF3000E
FFF3FFE70001FFF9FFF9FFF6000CFFF60001
0003001000080016000700080010001B0020
FFF50013FFFA000FFFFDFFE7FFFBFFF1FFFF
FFF6FFF40023FFF80014001E001EFFFE000F
000A00100000001200110018001B0012001C
FFEAFFF8000BFFFD0002000CFFFAFFEE0009
FFFE00040009FFF8FFEA00010000FFEF0005
000300050000FFF1FFF7FFEFFFEAFFF3FFF0
FFFEFFFB0008FFEDFFDFFFFEFFF9FFFB000B
FFFFFFFEFFF70002FFFAFFF1000AFFFFFFFE
0003FFF0FFFCFFE5FFF0FFFFFFFDFFFB0008
0003FFFCFFFDFFFB000E0009FFF8000AFFFE
0005000200020015000F0003FFF4000CFFFC
000500060017FFFFFFFB00050007FFF8FFF8
FFF9FFF60005FFEA00020002FFFA0001FFEB
FFFB0006FFFCFFF8FFF5FFFC0000FFF5000C
00110011000AFFEA0006FFF8FFF80004000E
000B0005FFF7FFF2FFFFFFF0FFED0001FFED
FFF8001C0011000E000A0016000400120013
FFF1000CFFF8FFF2FFF6FFEDFFF4FFF8FFFC
FFF2FFF6FFFE0007FFFBFFFDFFFDFFFEFFF8
FFE9FFEAFFEEFFE6FFEAFFF4FFF4FFF9FFF3
0005FFF5FFFDFFF5FFF9000C000400020005
00040002000200000006FFFFFFFDFFFD0004
FFFF000A000A000C000D0002FFF9FFFAFFF4
FFF8FFF6FFF50004FFFAFFE90000FFF6FFF3
00090005000BFFF6FFF70007FFF5FFFD0013
FFF7FFF50005FFFC00070002000800080014
00060001000AFFF800000007000E000CFFFC
FFFFFFFF0000000AFFFD000DFFF7FFF2FFF7
0004FFF700000008FFF5FFEB00060005FFF7
000AFFF80003FFF8FFFA000EFFF4FFE8FFFE
FFFF000100090002000A0009FFFDFFF6000A
FFFD000300110019001E0011001C0015001C
00020010FFF400090007000A0001FFF0000A
0000FFF6FFF90000FFF5FFFE0001FFFE0010
FFFF0015000AFFF8000E0001FFE90008000F
0016000F00170010FFFDFFF4000E0002FFF5
FFFEFFDF000F001AFFF4001E000EFFDFFFFF
FFDDFFF4FFE1001A00080009FFF4FFFCFFE6
000DFFF100030001FFECFFFF001CFFF2000D
FFF6FFEF000E0009000F0009FFE5FFFB0014
FFFDFFF3FFFBFFF2001CFFF4FFE9FFEAFFF9
001BFFF5FFF2FFF9000700000008000DFFEC
FFF00003FFECFFDD000FFFF7FFF8000DFFF4
FFD9FFE5000DFFEFFFEB0005FFF2FFFF0001
FFF400230008FFF9001EFFEDFFFB001AFFED
0014001C00050022001D001EFFFF001D000A
000AFFEDFFFE001DFFFAFFF9FFF20009001F
001B000C0006FFFEFFF7FFF3002A0011FFEC
FFF20002FFF4FFFFFFECFFE8002200050008
001100040001FFFC0005FFF9001DFFFBFFEF
FFF9FFFCFFE9000FFFF6000CFFFA000FFFE9
FFF9FFF30014000900110002FFF4FFF90009
0003FFF7FFEEFFEAFFF6FFE9FFEEFFEA0003
002200080003000CFFFEFFF8000C00150007
FFECFFFF000A002F0020FFFAFFDFFFFE000F
001FFFFD000800310011FFFC000CFFF2001A
FFF0FFE60008000A00140011FFE0FFEAFFED
00100004FFFCFFEB000AFFF1002C000B0001
FFEBFFEA0004FFF9FFF1001E002D0009FFFD
FFF8000E000A0000FFFEFFF300270014FFFB
FFF600040016FFF3FFF4FFEB0003FFF10012
0007FFFF00040021FFFC00150027001BFFFA
FFE5FFEFFFD9001B001A001BFFCBFFE8FFFF
00020010FFF8FFFC000D0003001DFFEAFFF0
0017FFEEFFF30012FFF2FFDE0012FFF40005
00160004001300010009FFEFFFE5FFFFFFFB
FFF3FFFFFFFCFFFA000AFFFDFFF10002FFF3
FFF3FFE500190004FFF2FFFF0001FFF7FFFE
FFF800030017FFF8FFFF0026001F0001001E
000C0005FFE4000EFFFA000D0005001C0018
0004FFFF00150005FFFB0014000BFFF30021
001300030009FFFF00060004FFF8FFE7FFF7
FFEDFFFEFFF6FFEDFFF8FFF3FFEFFFF10011
FFFB0014FFFD000A000800050001FFFBFFFA
FFF40014000DFFFB000CFFF7FFF100020002
FFFE000B0006FFED0000000BFFE9FFFA0015
FFFA0002FFE10008FFFAFFFDFFFEFFF9FFDF
FFEDFFEA0000FFFAFFF0FFFD001700110003
FFF100090009000AFFEF0002FFE8FFE3FFF3
FFFFFFFF0010000A00000011FFE7FFF2FFF6
FFF1FFF9FFF20015000E000D0005FFEF0003
FFFF000EFFF0FFFE001900070003000FFFEB
00080010FFF5FFF40018FFF3FFE900240002
000A000FFFEDFFFBFFF400040003FFFEFFEC
000D00040010000AFFFC000C000BFFF1FFFD
FFE60002FFD200050003FFDB0001FFFCFFDD
FFFA000BFFFD000E0014FFE5000B00100006
0008FFECFFF90009FFF6FFFB000DFFFB0017
00020003FFFF0010FFF7FFF1FFF9FFF4FFF2
000100110014FFF3000B0011FFFDFFEE0000
FFF30001FFFDFFFD0010001F000AFFFA001E
000D00020010FFF3FFF1FFF6FFFB0000001F
FFFB00020003FFF6FFEB0003000700000020
00110003001300050009FFFC00000018002B
000F0005FFECFFFFFFF7000BFFFAFFF70001
000E00110017000A0011001700170010000D
000C000BFFFCFFEBFFF0000DFFFEFFF70018
000E000100120000FFF70017FFE9FFFB0008
0017FFFE00160002FFFF000F000B00050014
FFEE001BFFE8FFF40010FFFD001000200003
FFF0FFFF00000007001CFFEFFFF6FFFFFFE2
000D00110015FFE0FFE6000EFFED0010000A
FFFE001DFFF3FFEB001A0016FFE00019FFF4
FFEEFFF70002FFF3FFF8FFF8000900010009
FFFBFFEFFFF90002FFEEFFFFFFE6FFFF0014
FFF20010FFF8000BFFFA0008FFF400060000
0014FFF800060005000FFFF50007FFF10006
0021000B000B0003000A000B00120006FFFD
000E00020007FFFBFFEE00070008000C001E
FFEBFFF1FFF8FFF8FFF10004001E0012001A
001C001B000E0009FFEC000B00120014FFF9
FFFAFFFCFFFE0014000E0025FFE9FFDA0008
001000090005FFFCFFF00005FFFEFFEC0011
0010FFFB0001FFF1FFF9001FFFF300060009
001B0003FFF90008FFF7000100070008000C
FFEEFFEB0001FFEAFFF7000F0002FFF4FFF7
0013001000150018FFF6001E0002FFF5FFEA
000EFFDDFFECFFEFFFF2FFF8FFFBFFFB0007
FFECFFFD0003FFFDFFE60001000C001A000D
FFF7FFFD000900050011FFF90009001E0019
00090009FFF70007FFEA000BFFFF0006FFFA
0002FFF700090000000CFFEF000BFFFBFFEC
FFF700080018FFE9001EFFFFFFDEFFEEFFFE
00100011FFEE0007FFFFFFF6FFE40005FFF9
FFEBFFF1000DFFEE0000FFF6FFFF00150005
FFF9000DFFEDFFFD002A0008000B00100015
0017000D00070011FFDEFFDFFFFE000D000B
0014FFFB00000007FFF9FFEEFFFA000D0000
00220001FFF8FFF4FFF0FFECFFF700070000
FFF100010010FFF70011FFF40015001B000D
0013FFF6FFFCFFEAFFFE0005FFFC000CFFFE
0000FFEA00080023001E000B000B000B0001
00110017000AFFFFFFEFFFF50008FFEE0006
00080018FFFCFFF8FFDBFFDAFFEEFFF70005
00150010001CFFF2FFE4FFFAFFD3FFE1FFEC
00000001FFF8001E000CFFFE0005FFDEFFEF
00120011FFFBFFF4FFEAFFE8FFFA000DFFF5
0001FFECFFECFFEAFFEC000200040005FFF7
FFFC0014FFF9000300010002000300170005
FFFAFFF800040018001A001CFFFA0018000D
FFECFFE1FFEC000CFFFC0002001300000006
FFFDFFFCFFFA0010FFF1FFF1FFF6FFEDFFEE
FFEFFFE7FFF300060001000EFFFB00160015
FFFD0019FFF800040002000DFFE9FFDBFFDF
0008FFF8000800150027001AFFEC00100004
FFE9000E000EFFFE0015FFE5000E0007FFFC
00070008000E0001000D0004000FFFFE0001
FFEAFFFC0000FFFFFFE7FFE0FFF8FFF0000B
FFF0000F0018FFF4000D00010009FFE5FFE9
FFDBFFE7FFEE00220025FFF700030006000F
FFE5FFF9FFEEFFEDFFF4FFFC000AFFF2FFE4
000B0007FFDC000B0003000400090002FFEB
00040002FFFE00180017000C001FFFF9FFFD
FFF20018000CFFE700000014FFFA000C0010
001D000EFFFFFFF90004FFE6FFEDFFE7000B
001A0020FFEC0002000CFFFA0008FFF90014
0005FFF9FFF0FFEDFFF7001F00030008000F
00080013000CFFFEFFF1FFE3FFF5FFFEFFF9
FFF7FFE9FFFAFFF10010000700120014FFFE
0007FFFC0000001400060019001700150012
FFFEFFE0FFE70010FFFA0003FFE60006FFF8
FFF6FFEBFFFE001F0013000EFFF8FFE9FFE8
FFEBFFFC0004FFFA001200010004FFF9FFF8
000D0000FFFB000C00000009000C00090008
FFF9000B00110018000CFFFB000CFFF70002
FFF300000003002200250016002300270023
00090010000500040002000900080014000E
000500030009FFE7FFF80004FFE6FFE90016
FFEFFFF9FFE60009FFFCFFF80010000D0019
FFF8FFF60013FFF00013FFF9000DFFF4FFFC
0007FFF2FFED001D001AFFF40009000C0012
FFFDFFDDFFFAFFFAFFF4FFF8000500040005
FFFBFFF4FFF6FFEF0000FFF80003000EFFEE
FFFB0015FFFDFFF000040017001800040018
0011FFFB000DFFF7FFDFFFF4FFFBFFECFFE2
FFFC00170000000B0013000D000400090000
0001000AFFF80019000EFFFBFFEA0006001B
FFF8FFEEFFF6FFFCFFF3FFEB000AFFF50003
000FFFFE000CFFEDFFFE00060006FFF8FFEE
FFFB0005FFFAFFFCFFFBFFFB001DFFFC000F
FFE6FFF50004FFF7000B0002FFF10001000E
FFFD0007FFECFFEA0002FFEEFFF2FFF8FFFF
FFEE0012FFFDFFF1000C000BFFFF0004000D
FFFB0006001AFFF7FFFD00070000000DFFED
0018000EFFF9FFF8FFFC00020002FFFDFFFB
0012000FFFFBFFF9000B0017FFEC00090011
000C000800040023FFFE001CFFFA000F001F
FFFB000B00180002000BFFFDFFFB0018000F
FFF3FFFFFFE3FFF6FFF4FFECFFEFFFF7000D
FFF7FFFC000A0017FFFCFFF8000D00110008
FFF9FFFFFFF5FFDDFFF0FFED000E0004FFE3
FFFF001E001D001B00000013FFE7FFF4FFF2
FFF6FFEEFFEF0013000D0002FFFD0006FFFB
000CFFF20003FFFEFFFEFFF10006000A000A
