00060034FFEB00010021FFCE001400140032
0001FFD3FFF3FFE8FFFF00250010FFEEFFDC
001900280028FFF3002500350009FFDA0038
FFA5FFC30026001DFFEDFFF40001FFE7FFE1
FFED0016003AFFC8FFB0FFFB000FFFFCFFF8
FFE7FFC7FFED002E002E0019FF9BFFB2FFC8
FFFC0038FFE1000A0020FFD700070034FFF0
FFF8FFD0FFB3FFE300300049001AFFCFFFF4
001AFFB4FFCEFFDA00090024001000300004
002500020029FF92FF9EFFB8FFCDFFF4FFE5
002DFFF5003EFFC4FFD9FFE1FFEBFFC9FFF7
FFFBFFFC003D0019FFF40041FFD800300023
FFCE00020041002A0032FFE30017FFD5FFF0
FFEFFFE9FFECFFFDFFE10004FFCC00240014
FFEBFFD1FFC7FFD90010FFDB003B004AFFC3
FFF1FFF20009FFE8FFCCFFCFFFFEFFD8FFD9
FFD900070020FFFDFFF1000BFFDF000FFFDA
FFEBFFD90003FFF3001C0019FFFC00120002
0016FFEDFFEAFFDBFFE0FFE7FFEA000B0021
FFEEFFE10009FFF7FFE80018FFDFFFE30007
FFD4FFDC0014FFE3FFDCFFDFFFE9FFF9FFFE
FFFE000CFFFBFFDC000D0014000A0005000B
0004000A0015000AFFEBFFF0FFD30009FFDA
FFD4FFCAFFDFFFDE000800240001FFF20005
FFF30004FFF5FFDD0007FFCF0022001E0011
00190015FFFF0002FFF9001CFFEDFFD80028
FFFC00210002000800230025FFECFFF90012
FFF1FFEA0008FFE8FFE3FFDCFFE2FFF20003
FFFCFFDFFFEC0005FFE3FFF0001B00060027
0008FFE8FFDCFFF4FFF800130015FFE1FFF3
FFFCFFF80003001DFFE10022FFF1FFF0001D
001AFFDFFFED001E0010FFF90017FFF40002
FFF4000E000EFFFBFFD2FFCEFFF3FFE20029
FFE90013FFE8FFFEFFFAFFF4FFD5FFFE002B
FFE9FFF3001D001B001A001C0029FFDCFFD9
0027000300190017000DFFF7FFE6FFEF001C
000700100017003E003A0008000FFFE3FFE8
FFC9FFD0FFCDFFFF00190007FFFBFFFAFFED
FFECFFE5FFE1FFC3FFCA0006002400380026
0024001EFFF90026FFD4FFFEFFE5FFFCFFC8
0013000B0012FFE80028001D0003000DFFF4
0008FFD10004001C001AFFFDFFE3FFFB000D
000DFFF5001C0022000CFFE3FFEF0039FFDC
FFE9FFF0000A00010013FFEDFFF8001A0015
FFE6FFD4FFFD0036001A002B001A0000000D
0016FFDFFFC9FFF7FFD8FFD0FFF3FFD3FFD4
0001FFCF0027FFE5FFD90022FFDDFFE20033
0031000F000000150006FFE700170004001B
FFF100040015FFDAFFF6FFD7FFDFFFEDFFCB
0023001BFFF9FFE5FFDCFFEFFFE4FFCF0001
FFE6FFD5FFF7FFF900030018FFE4FFE60013
002400150007000AFFFAFFF400090002002E
FFECFFFD00040018000AFFE7FFDDFFFEFFCE
FFE1FFD3000C001CFFD8000CFFEEFFD3FFEA
0003FFFE0010FFEC0019FFF0FFDEFFD7FFE5
003E00030030FFED001B0002001300170033
0029000F0000FFDE000DFFFA0026000F001C
FFFF0011FFF6FFDEFFF7FFFB0017FFE0000B
0010000CFFECFFFCFFEA001AFFEC0009FFDD
0018FFE300160015000B0000002300060025
FFD900010007FFDDFFFFFFDAFFF1FFF1001A
FFD600030016001BFFD2000E0011FFFD000D
00100011FFF4002300190017FFF7FFF0FFE8
00180009000EFFDCFFD30012FFEFFFDDFFE7
FFDD00280011FFF2000E001E0005FFDEFFDE
FFF0FFEF0010FFF90011FFEAFFD90015FFEF
FFEDFFEBFFE50026FFE40010FFF9FFE10020
001D0022003EFFEAFFDD000E0016FFDBFFEC
FFFFFFFF000CFFFAFFEC0005FFEEFFECFFEA
000FFFC9FFE5000AFFD4FFDAFFFEFFF6FFDB
FFCCFFEBFFDFFFD10014FFE0FFFC000AFFE0
00230024000AFFF70014FFEE0004FFFC0028
001D00000015000D000C0001FFEEFFEA001C
FFF6FFE5FFECFFE4001D001A0011FFE8001E
FFDBFFF1FFD10005002DFFFB000EFFE90010
FFDCFFDFFFD1000EFFEB0002FFFBFFE0000B
FFDAFFEC000900230013FFF60003FFEDFFF1
FFE2000100190027000F00130011FFE50003
FFEBFFDA0011000700180030FFF2FFE60033
FFFB0015FFFB0018FFF1FFF1FFFF00020019
FFD3FFF1001D0032002B0033FFF60011001F
FFE1FFE900050027000E000AFFE6FFFC0011
FFDE00130013FFF5001D00120025FFFBFFFC
FFD0000A00020026002AFFE9FFF00005000E
0018FFFAFFDF000DFFE60008FFFC00180009
FFEAFFDEFFF20032FFFE000EFFF2FFE0FFE1
FFEEFFF4FFE50007001A003FFFC3FFDAFFF7
FFDFFFEBFFF2FFD6FFD4FFD70000FFDBFFEC
FFCAFFFF0007FFE8FFE3FFE200140014001E
FFF5000A00070007001BFFF4000CFFF10006
00270025FFE300070048001FFFF70011000C
0008FFE90001FFD000200014FFF600180032
FFFDFFEC0025FFD7FFF80010000100010018
FFEFFFF10011FFE1FFEC0012FFE1000A0010
FFE5FFE0FFEFFFF6000B0005FFE9FFD8FFEA
FFE9FFE8FFFAFFD9001A001F0017FFF10026
FFF5FFF9000EFFE4FFFAFFEC0000FFF50004
000AFFF10000FFF2FFEC0004000AFFF7FFE2
0018FFF60004000B0003FFF4FFF3FFFFFFF6
FFF700040000FFFCFFFE0014FFEFFFEEFFF9
00120014FFFBFFFBFFEA001100050001FFE6
0003FFF60004FFF7FFFFFFF300110005000A
00090009FFFEFFDBFFDDFFEBFFF1FFF0FFE9
001600250020FFF5000F0014FFE5FFE10004
00000018FFFC0014FFFA00170003000EFFF1
0012FFF7FFE6FFF50006FFF5FFFF00000000
FFFDFFEEFFFB00010007000CFFF800010000
0018FFED0008000D00150008FFE7000BFFEC
0007FFF3FFF100170000FFF70012FFE7FFF3
0007000BFFEDFFF8FFF5FFFFFFE9FFFDFFF5
FFE700090013FFF9FFEAFFFE00050012FFE3
0003FFF00012FFF1001200110004FFF9000B
00120013001C0005FFFDFFFC0003FFFCFFEC
FFF50005FFE6FFEA000B00040005001C000E
FFEBFFEB001C001FFFFF00210006FFFC0005
0013FFEEFFEAFFDFFFE7FFEAFFFCFFF2FFE8
0017FFEF001C002000220005000CFFECFFF7
000AFFE8FFFC001E0014002C001FFFF20025
0015FFF7000B0022001EFFEA0003FFDEFFFE
001900010001FFFCFFF200110020001F0018
FFF60004FFE9000D001CFFFF00190010FFFD
0013FFF8002100010008000BFFD9FFF60005
FFEC001D000AFFEDFFF6000DFFF3FFE2FFF5
0016FFE7000FFFFC000F000DFFE4FFFF0017
FFEDFFF00003FFFEFFF00015000700140020
FFF7001C0015002100110013FFE600170019
0013000600010020000DFFFCFFE700140012
001F000C00040003FFEC0018000EFFEE0007
FFDE0002FFEC0000FFF3FFF4000EFFE7FFFE
FFFEFFD900250011FFE1FFEAFFF9FFEFFFF4
0023FFFB00010010FFE3000A00240009FFE0
FFE9FFD4FFE200090012000EFFF1FFE9FFDD
FFDCFFF7001FFFF30001FFF2FFFEFFF2FFE1
FFED0014FFFAFFD3FFF9FFC9FFFC00150022
0019FFED0003002E000800140005FFDBFFEB
FFD40008FFCE0019001F002A0027002C0027
0019FFFAFFE0FFD7FFFC0007FFEE0015002E
FFE5FFF4FFD5FFE90004FFF5FFFF0010FFDE
001300150008000AFFFEFFE2FFE300090001
0010FFFAFFF3FFE2FFFBFFE4FFF100090009
FFF2FFF0FFEAFFE3000BFFD60003001F0007
001A0015FFF6FFD6001AFFFA00160025FFF0
FFFCFFD9FFCAFFF700020005FFFCFFFFFFC5
FFE8000700120008FFD9FFF1FFF4FFE20009
FFECFFFC000F0013FFE8FFF10026000F0003
000D00020016000C002F002600060026FFEC
FFE3001C0004FFFA000F002000030021FFEB
FFCFFFE30018FFF80018000D00060004FFF4
000500190011FFFBFFDCFFE1FFE6FFE5FFE8
000F000900070019FFD00013FFF700090000
002F0025002C002500040007000C0017FFE1
FFF4FFF0FFE1000E00350028001300170003
0011FFF700100002FFED0029001DFFFE0012
FFF600120029000D002BFFF8FFF7FFFFFFF9
00280023001300110000FFF3FFDAFFFD0006
FFF50020001B0010FFEEFFEDFFEEFFFD0013
FFF5001800100006000B0013000500050008
FFFCFFED000200050010FFF90003000FFFF7
FFAE001DFFFCFFEF000A0008FFF70014FFC7
0021FFE8FFF7FFF3FFE80010FFEC000A001F
0002FFFDFFF30011FFFAFFF7FFEB0000FFE0
FFFCFFF2FFE8001AFFEDFFEF0008FFF40002
000DFFFF000C000A000DFFEFFFE7FFF60004
FFDEFFE0FFF0FFF4FFEA00000011000EFFEC
FFF5FFF7FFEC0000FFF3FFF90014FFF7FFE5
FFEF000FFFEDFFF9FFECFFFDFFE90011FFE8
000DFFF4FFF900000007FFE8000DFFE70008
000BFFE5FFF20000FFF5FFDA0008FFDF0000
FFF6FFF9000DFFE3FFFB00020001FFFFFFEA
0009FFEEFFF4FFEC000DFFF400160014FFF4
FFF60007FFFBFFE3FFEA00090012FFF2FFE7
FFFD001700080008FFF5000E0001FFECFFEA
0006FFF4000A0006FFF9000C0008000DFFF1
000FFFF9FFE9FFE7000EFFF9FFEE000BFFEE
0014FFF6FFFB0025FFF5FFE60018FFF60007
000BFFFA0006FFFD000BFFE6FFF50004FFFD
FFD90026002DFFF1FFFC0029FFFB0017001F
FFC8FFDC0026FFFAFFE30020FFE8000A0022
00170003001B0026FFFDFFF3FFDCFFE8FFD9
FFD4FFDDFFEAFFF90005002D0001FFE8FFEE
FFCB0026001D000200270026FFE000130039
FFDFFFCDFFC800020007FFC9FFEDFFFAFFE1
FFDAFFEAFFEFFFDF0002FFD5FFE0FFF00021
0017000C0019FFD1FFD7FFEBFFD20007FFE6
0032000F00080020FFD5001FFFF1FFEEFFFA
FFEBFFE5FFF800100017FFEEFFE20010FFF4
00290013FFEA00190031000C0016000B000C
FFEB0005FFD9002900000017000CFFCAFFEC
00130008FFD2FFE2FFDB0028000F00140019
002D0016FFFF00130015FFD8002D0008FFE0
00150003FFE4000DFFE8001600460052003C
FFFCFFEBFFEE002100110026FFEFFFDA0000
0001FFE5FFEE0001FFEB0011000FFFFB0015
00030003FFF0FFF7FFED000BFFF100170001
FFFAFFF5001EFFFCFFEF000AFFEAFFF6FFF0
FFE9FFE8FFDCFFECFFDF0003FFF900040006
FFE3FFEEFFDB00050003FFEB000600000010
FFFE001100140012FFEE0017FFFCFFE8000E
FFE8FFE8001BFFF6FFF800220009000E001D
FFFD0006FFF6FFE5FFF8FFE1FFF900000004
FFF2000CFFF1FFEAFFD9FFE4FFF9FFEFFFF3
0004FFF00012FFFFFFF6FFFFFFF3000B0009
FFE2FFF40002000C0010000C001300200015
0000FFF10000001200050001FFF6FFE8FFEE
0006FFFC0013FFF2FFF60002FFE3FFFDFFF1
FFFCFFFB0003000CFFF40001FFFAFFE8FFE0
0002FFEC0009FFFBFFF5FFFE0003FFE1FFFE
00140013000A000BFFF0FFE9FFFDFFF8FFEB
FFF100210034FFB8FFDFFFE4FFCDFFC6FFD9
FFEA000F004AFFDDFFDD0009FFC2FFB0FFCB
FFDE000F0000FFFAFFD7FFBC000E0011FFE9
FFE9004E0021001FFFF5001800030004FFD0
FFFB000700290032FFED004AFFD4FFF90020
001B0000FFB7FFE4000FFFCF002700250007
FFBC00000002FFEBFFF3FFE7000FFFD2FFF4
FFCEFFF70008FFFBFFC0FFF5002B000E0007
FFCDFFF5FFF5FFD6FFE9000800140044001F
000B000BFFF5001D0026002AFFF70014FFF9
000F001F0028001000550031000D002E0032
FFE70003FFC80012000DFFD8001EFFDEFFF6
001EFFD0FFFB001D001B0007001FFFE00021
0017002800180021FFF0FFE0FFC70008FFFE
FFE6FFEE0004002C0030FFF8FFD2FFD9FFDE
FFDD001EFFD9FFC9FFFB00020015002BFFF0
0007FFE2FFF8FFF5FFF1001FFFEE000E001A
FFF70000FFF6FFDCFFD9FFE0000DFFEC0017
FFF10000002A003A00240014FFF0FFD00002
FFFFFFF2FFDF0013002400040000FFEDFFFE
002800240002FFD7FFEA0019FFD6001D0004
FFE600170028000B00130022FFF6FFFDFFFA
FFDC00160024FFD80008FFF8000DFFF50010
FFE7FFCFFFBF001CFFFD001BFFF0FFF8FFD0
FFFE00140010FFECFFFAFFFCFFBFFFD2FFE4
FFF40016FFF3001DFFF6FFD7FFE00000FFFB
002B00160014002AFFFA002A0039FFF0000D
0014FFF90008FFF4FFF9001FFFCBFFCCFFC9
FFFB0019003D002D00090000FFFEFFD4FFF3
00150012FFFBFFEF000800240006FFF9FFDC
00140032FFF8FFD0FFE2FFCFFFD6FFCFFFC3
FFEF001E0005FFEAFFE2FFFA00070005FFF6
FFE9FFFDFFEEFFFC0006000C000FFFF0FFFA
FFFBFFFEFFE900130004FFE3FFEEFFEFFFEF
00000008000CFFF5FFEFFFFF0015FFFFFFF8
FFFCFFF20006000F000AFFF5FFE4FFE1FFEB
0011FFF1FFF7FFE4FFF6FFFDFFF90001000C
FFFCFFEBFFFD00130015FFF10018000B0014
FFE9FFF5FFEBFFEEFFEBFFFBFFEE000A0003
FFFBFFE3FFF0001DFFF90024000CFFF6FFEB
FFE7FFEEFFF60012001BFFF6FFE8FFE9FFEF
0008FFEFFFF10010FFF50002000DFFF3FFE8
FFF2001BFFE50000FFEDFFEE001E00160005
FFFBFFFF001400100007FFFFFFEDFFEB0007
00020014FFF1000FFFEBFFE5FFFFFFF9FFFF
FFEF0009FFE800050003FFF8FFF000150002
000E00040012001FFFFFFFFD00020008FFEF
00130012FFFD0010FFE9000B000F0011FFEE
FFE9FFD4FFE5FFD5000EFFE70023FFF5000C
FFF2FFEAFFDBFFF700050011FFE1FFE60014
FFF0000200130018FFF5FFEBFFF1FFED000E
000B0020000EFFFCFFEBFFD9FFF900070021
0000FFF3FFD2FFE4FFD6FFE9FFE5FFE8001A
001A0003FFF0001E001CFFFA0030FFF4FFEF
0000001DFFFB001CFFEEFFEF002E000E0032
0016001CFFF70008FFE9FFFC00350027FFF9
00140024FFF500070019FFDE0008000DFFFD
FFF90023FFF500210015FFDCFFFAFFDEFFF5
00130019FFEDFFFF001000160006FFF90013
001200060002000800270002FFFFFFECFFFE
00090009FFE6FFE50003FFE500090018FFF8
FFEF0021FFFC00010000FFF3FFE4001DFFF5
0033001400310025000A000D001FFFE8FFE9
000300080021FFF1001D000AFFE9FFDEFFF6
00100002FFF7FFEB0003FFFB0005FFF1FFF7
0012FFF70003FFEBFFEEFFFBFFE2FFF7FFFE
FFF400100008FFFB000DFFF500030001FFF4
000500100005FFF6000BFFFB00070014FFFE
00070004FFF9FFF70005FFF1FFEBFFFDFFEF
FFEBFFEBFFF4FFFFFFFD0015FFDEFFEEFFED
FFF8FFEEFFF70004FFE7FFEDFFEEFFE6FFE8
FFFE0015FFFE0001FFFCFFF0FFFEFFFD000C
FFF2FFFBFFF40015FFFA00060008FFF70012
FFF400100001000FFFFD0001001000150007
0005FFF5FFF00000FFE80001000CFFDEFFEE
FFFF000E00110001FFF20008FFEF0001FFF6
FFF8FFF5000D000D0004000800010011000B
0003FFF400050006FFFE000BFFEC0007FFF8
FFF5FFFEFFFFFFF9000E00080012FFEE0003
0001000A000EFFF7000EFFF0000A000F0010
0017FFE7000A00100031FFFA002300240041
FFE2FFC5FFF7FFD3FFDAFFE00028FFDB0037
FFDD0014FFE700040002FFECFFD20014FFE6
0023FFD2000C0021FFF30030FFFC0008FFF3
001BFFE1FFEFFFC3FFD9FFDDFFD4FFE9FFEC
FFC5FFDBFFCB0025002A003300220033001F
FFCBFFE2FFBDFFDE00060027004F000F0023
00340004FFF4004E0036000C001000280005
FFE1FFE8002AFFEF003C000D001AFFFBFFDA
001800390017FFE9FFE500250008FFED0024
FFB70002FFEA000D002AFFF1003000270051
FFF6FFDAFFD4000800190013FFFEFFEC000C
0016FFE600170012FFE300050035FFDDFFFA
000400090004FFF30019002600370014FFE4
00090018FFCCFFD9FFCDFFC9FFBFFFECFFDD
00060005FFFCFFF7FFFAFFFD0023FFEDFFE1
FFFD0007FFEFFFFAFFF1FFFB00070009000F
FFF000010007FFF100130009FFFCFFE3FFF4
000F000F0010000500060010FFEF0007FFED
FFE1FFDF000200130010FFFDFFE3FFE8FFFB
FFE2FFE7FFED00030012FFF2FFDB0002FFE8
0019000C000EFFFC0009001D001BFFF6001F
FFFFFFEEFFF0FFFFFFED00090013FFF80023
FFCCFFF3FFD8FFFC0024000FFFD6FFF2FFE5
FFF2FFF6FFE0FFF70002FFEA000EFFF7FFE6
0016FFF4000DFFFA000500080000000DFFFC
0006FFF80007FFFFFFE5FFEF00170008001A
FFEA000C0011000D0002FFE7000EFFF1FFE8
00000011FFEAFFE9FFF60010FFF6FFF6FFFF
FFF2FFF40007000900150003FFE800050013
0019FFF4FFED00000006FFFFFFF8FFE80010
FFF5FFFD0006FFEEFFF60008FFF2000DFFFD
0002000D0020001EFFF40014FFF200000002
FFFC00100022001A000E001E001C0012FFF0
0016000400060008FFF6001D0008000BFFEA
FFDEFFFA000DFFFC000EFFEB00100016FFED
FFF1FFEEFFFA0013000FFFFC000A00190007
00150001000100110013000A000AFFFFFFF8
FFF60011000D001EFFFB001BFFD7FFF7000F
FFF4FFE6FFE30004001BFFFE00270019FFFC
FFF5FFEC00010009FFE6FFFCFFF900150003
001C00100008FFF3FFF8000FFFF30002FFFA
0007FFF3000DFFF0000300020002000FFFFB
FFEC001D000E0003FFF4FFEAFFECFFF00004
0000002100040013FFEA000EFFFEFFE90002
0018FFF7001BFFE0000EFFFCFFF200190011
00070002002E00170027FFF50012FFF8FFE9
FFF20012FFF1FFE6FFF90009FFE50005FFF8
FFDF0009FFDFFFF3FFFDFFF70005FFFC0005
FFFEFFDEFFFB0017FFEE001B0011FFF00003
0013FFEE001300160012001EFFE3001E0018
FFF4FFE60015000F0019001BFFF8FFE90010
FFE30014FFDCFFDAFFF1FFDC0005000BFFE4
000E0009000FFFFB001A000AFFFEFFF90016
FFE6000C00160013000AFFFBFFDEFFE8FFCD
FFFBFFEDFFF6FFEFFFF4000800000019FFE7
FFD9FFCE000DFFE5FFF4FFF5FFF5FFF60015
FFFAFFF30015FFE1001BFFFC0007000CFFF5
FFFEFFF1FFE70012FFFC0006FFDEFFD9FFC4
FFEFFFEF000B000C000A00080013FFF6001E
FFE7FFE4FFFC000AFFE60011FFFE00100011
0001FFF4FFFEFFE4FFF3FFF4FFED0004FFEB
000900180018FFFC000A00130022000C0029
FFDCFFE6FFEFFFEDFFF0FFDA0003000DFFF0
0003FFFCFFDDFFF1FFF6FFE40029FFF20025
FFFEFFE0FFE000080001FFF7001AFFFBFFF2
FFF2000E001D00080025FFFBFFE6FFEAFFF5
FFFCFFFCFFD0FFF0FFD9001000070004001F
FFE8FFEAFFFC00020011FFE40000000EFFDF
00040019000800130016FFF1001700170007
FFF9FFEBFFEB0011000CFFFA00040037001E
0012000CFFF1FFECFFE5FFF1000B0010FFFD
FFFEFFEF0009FFF5FFF3FFD80003FFE9FFEC
FFF900160014FFFDFFF6FFF20015FFE1FFE2
0018FFF60015000C001500230031000D000C
FFF0001F00110013FFE50012FFD9000EFFEA
00100001FFF1FFE3FFFB0012FFE3FFE80012
FFEDFFFCFFF9001BFFE0FFF4FFF200090017
0013000B000A001200110001FFFD0011FFE8
000B001D0018FFFAFFF6FFEBFFE000140015
00160004FFF8FFF1FFE5000F0008FFF5FFE9
FFF10012001CFFFE0006001CFFD60007FFEE
FFF4FFFC0006FFF0000B00000029FFF9FFFC
FFFE00330026FFDD0012FFE9FFE9FFDA0003
FFF800030032001900170017FFE200110012
FFEAFFDEFFCAFFF90012FFF0FFF9FFEDFFEA
FFF700080013FFDEFFD6FFEAFFF6FFFF001B
001A0031FFF90007FFEB001FFFE0FFDFFFF7
FFECFFF3FFF400130008FFEB001FFFFA0006
00100008FFDEFFDEFFF4FFE30000FFE6FFEF
FFF9001B00100022FFFDFFF2FFF20013000D
00270018FFFBFFF20016FFF2FFFA002EFFFA
0016FFF7FFED0007FFF400230021FFF30007
002CFFFAFFF6000A0017FFFAFFF7001D0018
000DFFF60000FFD4FFFFFFE8FFF9FFCDFFD5
002200010008FFF5FFF2FFEF00140011001E
001C00120026FFEDFFC40008FFDEFFF70009
FFF00015FFF7FFF7FFFDFFD5FFD2FFE50005
FFD900050010001D001F002D0017FFEC0028
00260043004400090008FFED0001FFF6FFFE
0027000D0043FFE1000A00160020FFF1001A
FFEFFFEEFFC3FFF4FFFAFFDBFFE4FFD0FFDC
FFE4FFDD0003FFD4FFE6FFD30013FFE7FFE9
004400350015000600170022FFFFFFF3FFFC
FFD800290009FFDFFFDA00030022FFF60007
FFD8FFF4FFE8001B0022FFF4FFD1FFF2FFF9
001A0012FFEA0031001C000A0000FFFB0024
00160025FFED00180021000EFFFD0001FFFF
FFD9FFE2002E0025FFE80029000200230004
FFD9FFF200000021000500210005FFE5FFF2
000C00100010FFFEFFE4000EFFEFFFCA000C
0012000AFFE3FFE3000DFFE4FFF2FFE9FFE1
0033FFE6003CFFDF000F000DFFF4FFCAFFF3
001D0044003CFFAD0001FFEA0005FFD6FFDC
FFE20000002DFFEA00340025FFF5FFE90036
001A00240016FFFCFFFE0005FFB7FFD8000D
00380000001AFFF7004600450004FFD70035
FFDFFFF100310025002C0041FFDEFFC8FFE0
FFCFFFE7FFE4FFCEFFC4FFFF000A0015FFEE
003A0032000F00110005FFE30014FFE6FFF8
FFCE0003001A001BFFCFFFD90042001A0039
FFDCFFFEFFF7FFD70027000FFFE9002E001C
FFEFFFF7FFD80030001900220025003E000F
000600060016FFFD0031002A0017FFFD001A
000D000CFFFA002DFFDDFFEAFFE10007FFED
FFF1002B003F0008FFCF0040FFE400110035
004400310026FFD20000FFD4FFF80013FFB8
FFC7FFFBFFE8000FFFE7FFD5FFF3FFCEFFFC
FFFF0011001E0016000FFFFAFFF7FFEEFFED
FFFDFFF60008FFEDFFF10025FFF4001F0002
FFFFFFF0FFFAFFF6FFE5FFEB001C000B0013
FFC6FFE2FFC8FFFF001000120012FFF50020
FFF100160002FFFF001CFFEA001C0025FFF3
0010000C0025000AFFDEFFE8FFEE0005FFED
00100034000AFFF6FFFBFFDEFFEBFFD5FFE8
FFFBFFE3FFE3FFFE002B001E0022000B002A
FFEC00080002000D0022001000180013000D
FFF50014000FFFE3FFE4FFF0FFDA0004FFFF
FFFD000C0023FFF0FFF3FFF40000FFF7FFF8
0012FFF7FFE10000FFF500090000FFDFFFFD
0007FFF60014FFDD0000FFFD0010FFF0FFE2
000AFFEFFFFE00010009FFD50007FFE00012
0006FFFFFFFDFFEDFFFAFFEB00170011FFEF
0016FFF10004000C000BFFEE0007FFFFFFED
00030008FFCEFFFDFFCE00080005000BFFDB
FFCA0005FFF1000C001B00000007FFFCFFD6
00020004FFDD0018FFFC00090016FFFF0020
00010012FFDE0013000BFFD9FFE50024000B
FFE90019FFCAFFEAFFD7FFD1FFE9FFC9001C
0014FFEA001D001D0015FFE30011FFE70017
FFE8FFE3FFF4FFCFFFD2FFD1000B0025FFDD
FFFD0010001D002E002F0006002200030040
FFDFFFF10009FFE000000019FFE8FFFB002F
FFF3FFE5FFE4FFDB0025FFFCFFFAFFFEFFF4
000B0003000100020036FFD800220000000D
FFE8FFF5FFEBFFD6FFF1001FFFF1FFE10024
0009FFD7000CFFF20026001D000CFFE6FFE7
FFD3FFC4FFEEFFEEFFCB0022FFEA0011002E
0041003A0008003400080006001A0028FFED
0013001BFFE9FFEFFFCB00210018FFDCFFDE
FFD7FFD5FFE80005FFF50025000B00220021
FFE4FFCBFFFEFFDE0002FFFDFFFA00100018
001DFFFB002000070022001DFFF1FFE0FFE2
FFFA0005FFC4FFCBFFEA0001FFF9FFF50026
FFE1FFFFFFEDFFEA0003FFE40019FFD4FFF7
FFEB000A002EFFFF00010000FFEC0017FFE9
FFEC0006000E002C003B00080030FFFA0021
0012FFE5FFE4FFF2FFFEFFEF002C0028FFFB
FFF500090013FFFDFFDA0001FFD2000DFFEB
FFED00190022FFFDFFE2001AFFE6FFF0FFDD
FFF1000F000600240018000D0013FFEDFFE9
FFF1FFE7000F0000FFE70006FFE9FFF60009
0016FFFBFFFB0017FFF40005FFEFFFF4000B
0025FFF8FFF7FFE10014FFF5FFF2FFECFFD6
FFDD0016FFF1FFEF000DFFF70005FFE2000C
FFF5FFF6001FFFF3FFDE000D00180003FFEE
000A00040010000D00050004FFF7FFF7FFF4
000900040009FFF5000AFFF40008FFF0000A
FFF7FFF2FFF1FFF4FFF6000BFFFFFFEBFFFE
FFFFFFFD0005FFF3FFFE0009FFF7FFFAFFFF
0008FFF7FFFCFFF40010000CFFF30003FFF1
FFFBFFF5FFE9FFF0FFE0FFF80005FFF7FFFD
FFF700100011FFFEFFEFFFEC0010FFFB0005
0008000AFFFDFFF10005FFFBFFF2FFED0000
FFFAFFE4FFF7FFFC0003FFF2FFEA000BFFEF
FFEFFFFC000DFFEDFFEBFFEBFFF8FFEDFFED
FFEEFFFDFFFD0007FFF4FFF9FFF1FFF90007
FFFBFFF90001FFF700100008FFEFFFF6FFFA
FFEEFFFFFFEAFFF7FFF400090006FFF30001
FFF5FFF20005000C0011FFEEFFEAFFEEFFE7
000A00030017FFFFFFF00002FFF5FFFB0000
FFFFFFF3FFE6FFF4FFF8FFF9FFF2FFF9FFE9
FFD3FFD9000EFFF1FFE20018000CFFDDFFFD
FFCEFFEBFFF00000FFF9FFECFFF9FFF20010
FFF2FFF5FFF1FFF90016FFF9FFE30010FFF3
FFE2FFEA0013FFFCFFFEFFFA0016FFE50009
FFF6FFECFFE4FFE1FFE5001CFFE3FFDFFFED
0019000400190009000F000600190005FFE6
FFEA001000000002FFE1FFF5001C001D0028
FFE90016FFFD0007FFFC0026001700180005
FFE9FFE5FFDFFFF7FFFD001B00180014FFF6
FFE80013FFEE0012000D001BFFEF0005000C
FFFCFFFCFFFDFFFB002000070033000A0033
FFFCFFEDFFED001FFFFA00100007FFF6FFEB
0008FFE1FFF5FFF7FFE7000400200008FFF5
0002FFED0017FFFCFFF1FFF70004000F0016
00110020FFE5FFDC0011FFD8FFF2FFECFFDA
0001000FFFE60016FFEFFFF3FFF1FFECFFFD
FFFE002E0012FFFAFFF0000300150024FFF3
001E00020021FFEE002100280016FFE1FFEF
FFFC002800240024FFF4001A0005FFE6001C
001AFFEC000000230028FFFF0006FFEEFFF8
FFF300180013FFF200170001FFF200000025
000B001F0018FFF9FFFD0022001DFFEC0005
001FFFF20006FFF3FFE3FFFDFFEE0012FFE8
FFE90002FFEC00140004FFDD0012FFF30032
0010000C0022FFFF0019000B0004FFEA002D
0008FFE90015002700070012001D001D000F
FFD0001F001C001B00080015000FFFF6FFD6
0023FFE8FFF6001300080005001BFFFDFFF9
0023FFE70017FFF80021FFFCFFD6001A0005
0019FFEC0002FFDEFFDFFFFBFFE3FFF6FFF5
FFE90038FFF5FFD50034000DFFE8002F0002
FFEFFFF200020012FFF60014FFE7FFF9FFFD
